#include "magic_wand_model_data.h"

// We need to keep the data array aligned on some architectures.
#ifdef __has_attribute
#define HAVE_ATTRIBUTE(x) __has_attribute(x)
#else
#define HAVE_ATTRIBUTE(x) 0
#endif
#if HAVE_ATTRIBUTE(aligned) || (defined(__GNUC__) && !defined(__clang__))
#define DATA_ALIGN_ATTRIBUTE __attribute__((aligned(4)))
#else
#define DATA_ALIGN_ATTRIBUTE
#endif

const unsigned char g_magic_wand_model_data[] DATA_ALIGN_ATTRIBUTE = {
  // Paste the data of the char array in `src/model.cc` here
  0x08, 0x00, 0x00, 0x00, 0x54, 0x46, 0x4c, 0x33, 0x62, 0xff, 0xff, 0xff,
  0x03, 0x00, 0x00, 0x00, 0x10, 0x00, 0x00, 0x00, 0x24, 0x00, 0x00, 0x00,
  0x78, 0x00, 0x00, 0x00, 0x24, 0x00, 0x00, 0x00, 0x05, 0x00, 0x00, 0x00,
  0x78, 0x05, 0x00, 0x00, 0xb0, 0x04, 0x00, 0x00, 0xe0, 0x02, 0x00, 0x00,
  0x60, 0x02, 0x00, 0x00, 0x54, 0x01, 0x00, 0x00, 0x01, 0x00, 0x00, 0x00,
  0x78, 0x00, 0x00, 0x00, 0x13, 0x00, 0x00, 0x00, 0xd4, 0x2f, 0x00, 0x00,
  0xd0, 0x2f, 0x00, 0x00, 0xdc, 0x2e, 0x00, 0x00, 0x68, 0x2e, 0x00, 0x00,
  0xfc, 0x2d, 0x00, 0x00, 0xac, 0x11, 0x00, 0x00, 0x98, 0x10, 0x00, 0x00,
  0xbc, 0x0e, 0x00, 0x00, 0x60, 0x06, 0x00, 0x00, 0xfc, 0x05, 0x00, 0x00,
  0x78, 0x05, 0x00, 0x00, 0xa8, 0x2f, 0x00, 0x00, 0xa4, 0x2f, 0x00, 0x00,
  0xa0, 0x2f, 0x00, 0x00, 0x9c, 0x2f, 0x00, 0x00, 0x98, 0x2f, 0x00, 0x00,
  0x94, 0x2f, 0x00, 0x00, 0x90, 0x2f, 0x00, 0x00, 0x8c, 0x2f, 0x00, 0x00,
  0x0f, 0x00, 0x00, 0x00, 0x4d, 0x4c, 0x49, 0x52, 0x20, 0x43, 0x6f, 0x6e,
  0x76, 0x65, 0x72, 0x74, 0x65, 0x64, 0x2e, 0x00, 0x00, 0x00, 0x0e, 0x00,
  0x18, 0x00, 0x04, 0x00, 0x08, 0x00, 0x0c, 0x00, 0x10, 0x00, 0x14, 0x00,
  0x0e, 0x00, 0x00, 0x00, 0x14, 0x00, 0x00, 0x00, 0x5c, 0x00, 0x00, 0x00,
  0x60, 0x00, 0x00, 0x00, 0x64, 0x00, 0x00, 0x00, 0x84, 0x00, 0x00, 0x00,
  0x12, 0x00, 0x00, 0x00, 0x04, 0x2f, 0x00, 0x00, 0xa0, 0x2e, 0x00, 0x00,
  0xf8, 0x2d, 0x00, 0x00, 0x98, 0x2d, 0x00, 0x00, 0x30, 0x2d, 0x00, 0x00,
  0xdc, 0x10, 0x00, 0x00, 0xc0, 0x0f, 0x00, 0x00, 0xe4, 0x0d, 0x00, 0x00,
  0xa0, 0x05, 0x00, 0x00, 0x3c, 0x05, 0x00, 0x00, 0xb0, 0x04, 0x00, 0x00,
  0xe8, 0x03, 0x00, 0x00, 0x38, 0x03, 0x00, 0x00, 0xa4, 0x02, 0x00, 0x00,
  0x10, 0x02, 0x00, 0x00, 0x90, 0x01, 0x00, 0x00, 0xfc, 0x00, 0x00, 0x00,
  0x80, 0x00, 0x00, 0x00, 0x01, 0x00, 0x00, 0x00, 0x00, 0x00, 0x00, 0x00,
  0x01, 0x00, 0x00, 0x00, 0x11, 0x00, 0x00, 0x00, 0x08, 0x00, 0x00, 0x00,
  0x1c, 0x04, 0x00, 0x00, 0x58, 0x03, 0x00, 0x00, 0xc8, 0x02, 0x00, 0x00,
  0x24, 0x02, 0x00, 0x00, 0xac, 0x01, 0x00, 0x00, 0x10, 0x01, 0x00, 0x00,
  0x94, 0x00, 0x00, 0x00, 0x10, 0x00, 0x00, 0x00, 0x04, 0x00, 0x00, 0x00,
  0x6d, 0x61, 0x69, 0x6e, 0x00, 0x00, 0x00, 0x00, 0x8e, 0xff, 0xff, 0xff,
  0x00, 0x00, 0x00, 0x09, 0x04, 0x00, 0x00, 0x00, 0x1c, 0x00, 0x00, 0x00,
  0x10, 0x00, 0x00, 0x00, 0x04, 0x00, 0x00, 0x00, 0x4e, 0xd2, 0xff, 0xff,
  0x00, 0x00, 0x80, 0x3f, 0x01, 0x00, 0x00, 0x00, 0x11, 0x00, 0x00, 0x00,
  0x01, 0x00, 0x00, 0x00, 0x10, 0x00, 0x00, 0x00, 0xf6, 0xfb, 0xff, 0xff,
  0x00, 0x00, 0x00, 0x19, 0x01, 0x00, 0x00, 0x00, 0xce, 0xd1, 0xff, 0xff,
  0x10, 0x00, 0x00, 0x00, 0x12, 0x00, 0x00, 0x00, 0x14, 0x00, 0x00, 0x00,
  0x20, 0x00, 0x00, 0x00, 0x02, 0x00, 0x00, 0x00, 0x01, 0x00, 0x00, 0x00,
  0x03, 0x00, 0x00, 0x00, 0x08, 0x00, 0x00, 0x00, 0x49, 0x64, 0x65, 0x6e,
  0x74, 0x69, 0x74, 0x79, 0x00, 0x00, 0x00, 0x00, 0x08, 0xd2, 0xff, 0xff,
  0x00, 0x00, 0x0e, 0x00, 0x18, 0x00, 0x08, 0x00, 0x0c, 0x00, 0x10, 0x00,
  0x07, 0x00, 0x14, 0x00, 0x0e, 0x00, 0x00, 0x00, 0x00, 0x00, 0x00, 0x08,
  0x03, 0x00, 0x00, 0x00, 0x18, 0x00, 0x00, 0x00, 0x0c, 0x00, 0x00, 0x00,
  0x04, 0x00, 0x00, 0x00, 0xdc, 0xd1, 0xff, 0xff, 0x01, 0x00, 0x00, 0x00,
  0x10, 0x00, 0x00, 0x00, 0x03, 0x00, 0x00, 0x00, 0x0f, 0x00, 0x00, 0x00,
  0x05, 0x00, 0x00, 0x00, 0x02, 0x00, 0x00, 0x00, 0x46, 0xd2, 0xff, 0xff,
  0x10, 0x00, 0x00, 0x00, 0x11, 0x00, 0x00, 0x00, 0x14, 0x00, 0x00, 0x00,
  0x30, 0x00, 0x00, 0x00, 0x02, 0x00, 0x00, 0x00, 0x01, 0x00, 0x00, 0x00,
  0x03, 0x00, 0x00, 0x00, 0x1a, 0x00, 0x00, 0x00, 0x73, 0x65, 0x71, 0x75,
  0x65, 0x6e, 0x74, 0x69, 0x61, 0x6c, 0x2f, 0x64, 0x65, 0x6e, 0x73, 0x65,
  0x5f, 0x31, 0x2f, 0x42, 0x69, 0x61, 0x73, 0x41, 0x64, 0x64, 0x00, 0x00,
  0x38, 0xd2, 0xff, 0xff, 0xd6, 0xfd, 0xff, 0xff, 0x00, 0x00, 0x00, 0x08,
  0x03, 0x00, 0x00, 0x00, 0x24, 0x00, 0x00, 0x00, 0x18, 0x00, 0x00, 0x00,
  0x0c, 0x00, 0x00, 0x00, 0x00, 0x00, 0x06, 0x00, 0x08, 0x00, 0x07, 0x00,
  0x06, 0x00, 0x00, 0x00, 0x00, 0x00, 0x00, 0x01, 0x01, 0x00, 0x00, 0x00,
  0x0f, 0x00, 0x00, 0x00, 0x03, 0x00, 0x00, 0x00, 0x0e, 0x00, 0x00, 0x00,
  0x04, 0x00, 0x00, 0x00, 0x01, 0x00, 0x00, 0x00, 0xfe, 0xfc, 0xff, 0xff,
  0x00, 0x00, 0x00, 0x09, 0x01, 0x00, 0x00, 0x00, 0xd6, 0xd2, 0xff, 0xff,
  0x10, 0x00, 0x00, 0x00, 0x10, 0x00, 0x00, 0x00, 0x14, 0x00, 0x00, 0x00,
  0x2c, 0x00, 0x00, 0x00, 0x02, 0x00, 0x00, 0x00, 0x01, 0x00, 0x00, 0x00,
  0x10, 0x00, 0x00, 0x00, 0x15, 0x00, 0x00, 0x00, 0x73, 0x65, 0x71, 0x75,
  0x65, 0x6e, 0x74, 0x69, 0x61, 0x6c, 0x2f, 0x64, 0x65, 0x6e, 0x73, 0x65,
  0x2f, 0x52, 0x65, 0x6c, 0x75, 0x00, 0x00, 0x00, 0x1c, 0xd3, 0xff, 0xff,
  0x00, 0x00, 0x0a, 0x00, 0x10, 0x00, 0x04, 0x00, 0x08, 0x00, 0x0c, 0x00,
  0x0a, 0x00, 0x00, 0x00, 0x02, 0x00, 0x00, 0x00, 0x10, 0x00, 0x00, 0x00,
  0x04, 0x00, 0x00, 0x00, 0x01, 0x00, 0x00, 0x00, 0x0e, 0x00, 0x00, 0x00,
  0x02, 0x00, 0x00, 0x00, 0x0d, 0x00, 0x00, 0x00, 0x03, 0x00, 0x00, 0x00,
  0x7a, 0xfd, 0xff, 0xff, 0x00, 0x00, 0x00, 0x16, 0x01, 0x00, 0x00, 0x00,
  0x52, 0xd3, 0xff, 0xff, 0x10, 0x00, 0x00, 0x00, 0x0f, 0x00, 0x00, 0x00,
  0x14, 0x00, 0x00, 0x00, 0x30, 0x00, 0x00, 0x00, 0x02, 0x00, 0x00, 0x00,
  0x01, 0x00, 0x00, 0x00, 0x70, 0x00, 0x00, 0x00, 0x1a, 0x00, 0x00, 0x00,
  0x73, 0x65, 0x71, 0x75, 0x65, 0x6e, 0x74, 0x69, 0x61, 0x6c, 0x2f, 0x66,
  0x6c, 0x61, 0x74, 0x74, 0x65, 0x6e, 0x2f, 0x52, 0x65, 0x73, 0x68, 0x61,
  0x70, 0x65, 0x00, 0x00, 0x44, 0xd3, 0xff, 0xff, 0xe2, 0xfe, 0xff, 0xff,
  0x00, 0x00, 0x00, 0x05, 0x01, 0x00, 0x00, 0x00, 0x38, 0x00, 0x00, 0x00,
  0x2c, 0x00, 0x00, 0x00, 0x14, 0x00, 0x00, 0x00, 0x00, 0x00, 0x0e, 0x00,
  0x14, 0x00, 0x00, 0x00, 0x10, 0x00, 0x0c, 0x00, 0x08, 0x00, 0x04, 0x00,
  0x0e, 0x00, 0x00, 0x00, 0x03, 0x00, 0x00, 0x00, 0x01, 0x00, 0x00, 0x00,
  0x03, 0x00, 0x00, 0x00, 0x01, 0x00, 0x00, 0x00, 0x01, 0x00, 0x00, 0x00,
  0x0d, 0x00, 0x00, 0x00, 0x01, 0x00, 0x00, 0x00, 0x0c, 0x00, 0x00, 0x00,
  0xe2, 0xd3, 0xff, 0xff, 0x10, 0x00, 0x00, 0x00, 0x0e, 0x00, 0x00, 0x00,
  0x1c, 0x00, 0x00, 0x00, 0x40, 0x00, 0x00, 0x00, 0x04, 0x00, 0x00, 0x00,
  0x01, 0x00, 0x00, 0x00, 0x07, 0x00, 0x00, 0x00, 0x01, 0x00, 0x00, 0x00,
  0x10, 0x00, 0x00, 0x00, 0x22, 0x00, 0x00, 0x00, 0x73, 0x65, 0x71, 0x75,
  0x65, 0x6e, 0x74, 0x69, 0x61, 0x6c, 0x2f, 0x6d, 0x61, 0x78, 0x5f, 0x70,
  0x6f, 0x6f, 0x6c, 0x69, 0x6e, 0x67, 0x32, 0x64, 0x5f, 0x31, 0x2f, 0x4d,
  0x61, 0x78, 0x50, 0x6f, 0x6f, 0x6c, 0x00, 0x00, 0xe4, 0xd3, 0xff, 0xff,
  0xc2, 0xfe, 0xff, 0xff, 0x00, 0x00, 0x00, 0x01, 0x24, 0x00, 0x00, 0x00,
  0x18, 0x00, 0x00, 0x00, 0x04, 0x00, 0x00, 0x00, 0xb4, 0xfe, 0xff, 0xff,
  0x01, 0x00, 0x00, 0x00, 0x01, 0x00, 0x00, 0x00, 0x00, 0x00, 0x00, 0x01,
  0x01, 0x00, 0x00, 0x00, 0x0c, 0x00, 0x00, 0x00, 0x03, 0x00, 0x00, 0x00,
  0x0b, 0x00, 0x00, 0x00, 0x07, 0x00, 0x00, 0x00, 0x09, 0x00, 0x00, 0x00,
  0x72, 0xd4, 0xff, 0xff, 0x10, 0x00, 0x00, 0x00, 0x0d, 0x00, 0x00, 0x00,
  0x1c, 0x00, 0x00, 0x00, 0x2c, 0x00, 0x00, 0x00, 0x04, 0x00, 0x00, 0x00,
  0x01, 0x00, 0x00, 0x00, 0x15, 0x00, 0x00, 0x00, 0x01, 0x00, 0x00, 0x00,
  0x10, 0x00, 0x00, 0x00, 0x0c, 0x00, 0x00, 0x00, 0x74, 0x66, 0x6c, 0x2e,
  0x63, 0x6f, 0x6e, 0x76, 0x5f, 0x32, 0x64, 0x31, 0x00, 0x00, 0x00, 0x00,
  0xb8, 0xd4, 0xff, 0xff, 0x00, 0x00, 0x0e, 0x00, 0x1a, 0x00, 0x08, 0x00,
  0x0c, 0x00, 0x10, 0x00, 0x07, 0x00, 0x14, 0x00, 0x0e, 0x00, 0x00, 0x00,
  0x00, 0x00, 0x00, 0x05, 0x01, 0x00, 0x00, 0x00, 0x3c, 0x00, 0x00, 0x00,
  0x30, 0x00, 0x00, 0x00, 0x14, 0x00, 0x00, 0x00, 0x00, 0x00, 0x0e, 0x00,
  0x18, 0x00, 0x17, 0x00, 0x10, 0x00, 0x0c, 0x00, 0x08, 0x00, 0x04, 0x00,
  0x0e, 0x00, 0x00, 0x00, 0x03, 0x00, 0x00, 0x00, 0x03, 0x00, 0x00, 0x00,
  0x03, 0x00, 0x00, 0x00, 0x03, 0x00, 0x00, 0x00, 0x00, 0x00, 0x00, 0x01,
  0x01, 0x00, 0x00, 0x00, 0x0b, 0x00, 0x00, 0x00, 0x01, 0x00, 0x00, 0x00,
  0x0a, 0x00, 0x00, 0x00, 0x46, 0xff, 0xff, 0xff, 0x00, 0x00, 0x00, 0x11,
  0x01, 0x00, 0x00, 0x00, 0x1e, 0xd5, 0xff, 0xff, 0x10, 0x00, 0x00, 0x00,
  0x0c, 0x00, 0x00, 0x00, 0x1c, 0x00, 0x00, 0x00, 0x40, 0x00, 0x00, 0x00,
  0x04, 0x00, 0x00, 0x00, 0x01, 0x00, 0x00, 0x00, 0x15, 0x00, 0x00, 0x00,
  0x01, 0x00, 0x00, 0x00, 0x08, 0x00, 0x00, 0x00, 0x20, 0x00, 0x00, 0x00,
  0x73, 0x65, 0x71, 0x75, 0x65, 0x6e, 0x74, 0x69, 0x61, 0x6c, 0x2f, 0x6d,
  0x61, 0x78, 0x5f, 0x70, 0x6f, 0x6f, 0x6c, 0x69, 0x6e, 0x67, 0x32, 0x64,
  0x2f, 0x4d, 0x61, 0x78, 0x50, 0x6f, 0x6f, 0x6c, 0x00, 0x00, 0x00, 0x00,
  0x78, 0xd5, 0xff, 0xff, 0x00, 0x00, 0x0e, 0x00, 0x14, 0x00, 0x00, 0x00,
  0x08, 0x00, 0x0c, 0x00, 0x07, 0x00, 0x10, 0x00, 0x0e, 0x00, 0x00, 0x00,
  0x00, 0x00, 0x00, 0x01, 0x30, 0x00, 0x00, 0x00, 0x24, 0x00, 0x00, 0x00,
  0x10, 0x00, 0x00, 0x00, 0x0c, 0x00, 0x10, 0x00, 0x00, 0x00, 0x04, 0x00,
  0x08, 0x00, 0x0f, 0x00, 0x0c, 0x00, 0x00, 0x00, 0x01, 0x00, 0x00, 0x00,
  0x01, 0x00, 0x00, 0x00, 0x00, 0x00, 0x00, 0x01, 0x01, 0x00, 0x00, 0x00,
  0x0a, 0x00, 0x00, 0x00, 0x03, 0x00, 0x00, 0x00, 0x00, 0x00, 0x00, 0x00,
  0x06, 0x00, 0x00, 0x00, 0x08, 0x00, 0x00, 0x00, 0x00, 0x00, 0x0a, 0x00,
  0x0c, 0x00, 0x07, 0x00, 0x00, 0x00, 0x08, 0x00, 0x0a, 0x00, 0x00, 0x00,
  0x00, 0x00, 0x00, 0x03, 0x01, 0x00, 0x00, 0x00, 0xe2, 0xd5, 0xff, 0xff,
  0x10, 0x00, 0x00, 0x00, 0x0b, 0x00, 0x00, 0x00, 0x1c, 0x00, 0x00, 0x00,
  0x28, 0x00, 0x00, 0x00, 0x04, 0x00, 0x00, 0x00, 0x01, 0x00, 0x00, 0x00,
  0x40, 0x00, 0x00, 0x00, 0x03, 0x00, 0x00, 0x00, 0x08, 0x00, 0x00, 0x00,
  0x0b, 0x00, 0x00, 0x00, 0x74, 0x66, 0x6c, 0x2e, 0x63, 0x6f, 0x6e, 0x76,
  0x5f, 0x32, 0x64, 0x00, 0xcc, 0xd5, 0xff, 0xff, 0xc2, 0xd6, 0xff, 0xff,
  0x04, 0x00, 0x00, 0x00, 0x40, 0x00, 0x00, 0x00, 0x4c, 0x83, 0x09, 0x40,
  0x98, 0xcc, 0x70, 0x3f, 0x05, 0x9e, 0x98, 0xbf, 0x65, 0xcb, 0xd7, 0x3e,
  0x99, 0xff, 0x72, 0x3e, 0x0a, 0x22, 0x38, 0x3f, 0x68, 0xb6, 0x02, 0x3e,
  0xac, 0x85, 0x79, 0xbf, 0x44, 0x98, 0xd9, 0xbe, 0xd6, 0x78, 0xc0, 0xbf,
  0x26, 0x83, 0x1d, 0xbe, 0x89, 0xa0, 0x37, 0xbe, 0x11, 0x0a, 0x16, 0xc0,
  0x34, 0x54, 0x23, 0xc0, 0x21, 0x2d, 0x27, 0x40, 0x3c, 0xf7, 0xf7, 0xbf,
  0x6a, 0xd6, 0xff, 0xff, 0x10, 0x00, 0x00, 0x00, 0x0a, 0x00, 0x00, 0x00,
  0x10, 0x00, 0x00, 0x00, 0x20, 0x00, 0x00, 0x00, 0x01, 0x00, 0x00, 0x00,
  0x10, 0x00, 0x00, 0x00, 0x0d, 0x00, 0x00, 0x00, 0x73, 0x74, 0x64, 0x2e,
  0x63, 0x6f, 0x6e, 0x73, 0x74, 0x61, 0x6e, 0x74, 0x31, 0x00, 0x00, 0x00,
  0x4c, 0xd6, 0xff, 0xff, 0x42, 0xd7, 0xff, 0xff, 0x04, 0x00, 0x00, 0x00,
  0x20, 0x00, 0x00, 0x00, 0x08, 0xcd, 0x19, 0xc0, 0xee, 0x3e, 0x22, 0xc0,
  0x51, 0x30, 0x2f, 0xbe, 0x5e, 0xb0, 0xc4, 0xbf, 0x30, 0x0b, 0x45, 0xc0,
  0x64, 0xb5, 0xce, 0xbe, 0xb6, 0x35, 0x32, 0xc0, 0x50, 0x8f, 0x94, 0x3f,
  0xca, 0xd6, 0xff, 0xff, 0x10, 0x00, 0x00, 0x00, 0x09, 0x00, 0x00, 0x00,
  0x10, 0x00, 0x00, 0x00, 0x20, 0x00, 0x00, 0x00, 0x01, 0x00, 0x00, 0x00,
  0x08, 0x00, 0x00, 0x00, 0x0c, 0x00, 0x00, 0x00, 0x73, 0x74, 0x64, 0x2e,
  0x63, 0x6f, 0x6e, 0x73, 0x74, 0x61, 0x6e, 0x74, 0x00, 0x00, 0x00, 0x00,
  0xac, 0xd6, 0xff, 0xff, 0xa2, 0xd7, 0xff, 0xff, 0x04, 0x00, 0x00, 0x00,
  0x00, 0x08, 0x00, 0x00, 0x8c, 0xc8, 0x36, 0x3e, 0xfa, 0x07, 0xab, 0x3d,
  0xae, 0x8a, 0x87, 0xbe, 0x68, 0x26, 0x90, 0xbe, 0x7e, 0xd3, 0x21, 0xbe,
  0xb1, 0xb3, 0x2a, 0xbe, 0x56, 0xaf, 0x7a, 0xbe, 0xee, 0x31, 0x06, 0xbd,
  0x97, 0xba, 0x8d, 0x3d, 0x38, 0x20, 0xf2, 0x3d, 0x17, 0x24, 0x37, 0xbe,
  0x2f, 0xa7, 0x06, 0xbe, 0xe0, 0x96, 0xf9, 0x3d, 0x1f, 0x20, 0x99, 0x3d,
  0x5f, 0x34, 0xdd, 0xbd, 0x98, 0x5f, 0x9e, 0xb8, 0xea, 0x14, 0x56, 0x3c,
  0x09, 0x84, 0x00, 0xbf, 0x2e, 0xf7, 0x4b, 0xbe, 0x1b, 0xe3, 0x02, 0xbe,
  0xcb, 0xc1, 0xe9, 0xbe, 0xa0, 0x2e, 0x73, 0xbe, 0x68, 0x3b, 0xe9, 0xbe,
  0xf0, 0x04, 0x0d, 0xbe, 0x01, 0x87, 0x77, 0xbd, 0x37, 0x14, 0xf7, 0xbc,
  0xd8, 0x24, 0x85, 0xbe, 0xcd, 0x10, 0x7e, 0xbe, 0xa0, 0xdf, 0x1d, 0x3d,
  0xfb, 0x6d, 0xb3, 0xbd, 0xd6, 0x4a, 0x3f, 0xbe, 0x67, 0xff, 0x7b, 0x3d,
  0xd6, 0x7e, 0x1b, 0x3e, 0xd9, 0x97, 0xf8, 0x3e, 0x2b, 0x7d, 0xbe, 0xbe,
  0xe3, 0xe8, 0xcf, 0xbc, 0xff, 0x1d, 0xa3, 0x3d, 0xbf, 0xd6, 0x4b, 0xbe,
  0xc4, 0xa1, 0xaa, 0x3d, 0x1f, 0x7e, 0x9a, 0xbd, 0xe6, 0x65, 0x7d, 0xbe,
  0x78, 0x26, 0x83, 0xbe, 0x6a, 0xac, 0xc3, 0xbe, 0xd8, 0x67, 0xd7, 0xbe,
  0x3e, 0x01, 0x30, 0xbe, 0x49, 0xff, 0xb1, 0xbe, 0x63, 0x45, 0x72, 0xbe,
  0x4f, 0xb4, 0xa0, 0xbc, 0x30, 0x1a, 0xa9, 0xbe, 0x69, 0x95, 0x82, 0xbe,
  0xd8, 0xab, 0x0d, 0xbe, 0xac, 0xa4, 0x87, 0xbd, 0x91, 0x3d, 0xc7, 0xbd,
  0x37, 0xc4, 0x57, 0xbd, 0xb9, 0x55, 0x7e, 0xbe, 0xad, 0x4e, 0xf2, 0x3d,
  0xfb, 0x56, 0x68, 0xbe, 0xc6, 0xaa, 0xa4, 0xbe, 0x72, 0x94, 0x83, 0xbb,
  0x9b, 0x72, 0x70, 0x3d, 0x2e, 0x6f, 0xbf, 0x3c, 0xec, 0x94, 0x72, 0x3d,
  0xef, 0x44, 0x18, 0xbe, 0xf2, 0x9e, 0x84, 0x3e, 0xc5, 0x13, 0xa8, 0x3e,
  0xe3, 0x92, 0x9a, 0x3d, 0x1b, 0xb7, 0xe4, 0xbd, 0x06, 0xcc, 0xb7, 0x3b,
  0xf6, 0x67, 0x18, 0x3f, 0xd0, 0xd8, 0x8b, 0xbd, 0x1c, 0xf2, 0x21, 0x3d,
  0x54, 0xb7, 0x8c, 0x3b, 0xb9, 0x4b, 0xf0, 0xbd, 0x2b, 0xe9, 0x00, 0x3d,
  0x85, 0xaa, 0x63, 0xbe, 0x46, 0xc8, 0x03, 0xbd, 0xc6, 0x87, 0xbc, 0xbd,
  0xe7, 0x00, 0x0c, 0xbe, 0x62, 0xf4, 0x14, 0x3e, 0xb1, 0x7f, 0x63, 0xbd,
  0x9e, 0x18, 0x17, 0xbe, 0x4b, 0xb9, 0x3d, 0xbe, 0xc3, 0xbf, 0x43, 0xbe,
  0x7d, 0x8b, 0x08, 0xbe, 0x50, 0x67, 0xf5, 0xbd, 0x5c, 0x51, 0x3a, 0xbe,
  0x40, 0xd5, 0x0f, 0xbe, 0xe9, 0x55, 0x97, 0x3e, 0x80, 0xb9, 0x4a, 0xbe,
  0xa0, 0x13, 0x93, 0xbe, 0xdc, 0xc7, 0x7b, 0x3c, 0xc7, 0xac, 0xa0, 0xbe,
  0x26, 0xce, 0x73, 0xbe, 0x7c, 0x6e, 0x75, 0xbd, 0xbb, 0x15, 0x26, 0xbe,
  0x2c, 0xfd, 0x7b, 0x3e, 0x92, 0x91, 0xad, 0xbe, 0x93, 0x1f, 0xf5, 0x3c,
  0xe5, 0x40, 0x07, 0xbe, 0x8c, 0x64, 0xc6, 0x3d, 0x45, 0x68, 0x07, 0x3e,
  0x96, 0xc7, 0xb3, 0x3e, 0x6d, 0x26, 0xe8, 0xbc, 0x76, 0x2c, 0x54, 0x3d,
  0x2a, 0x08, 0x0c, 0xbf, 0x7d, 0xf6, 0x87, 0xbe, 0x0e, 0x06, 0x43, 0x3e,
  0xa8, 0xde, 0x36, 0x3e, 0xaf, 0x45, 0xb6, 0x3e, 0x09, 0x00, 0xfa, 0x3d,
  0x81, 0x46, 0xf3, 0xbd, 0x36, 0x26, 0x05, 0x3d, 0x4f, 0xe0, 0xbb, 0xbe,
  0xbd, 0xa2, 0x6e, 0xbe, 0x48, 0x48, 0xa8, 0x3d, 0x45, 0x99, 0x45, 0x3e,
  0xba, 0xc4, 0x8d, 0x3c, 0x3a, 0x9d, 0x68, 0x3e, 0xf1, 0xb4, 0xa3, 0x3d,
  0xfa, 0xea, 0x90, 0xbc, 0x05, 0x3a, 0x5d, 0xbe, 0xfa, 0x55, 0xab, 0x3d,
  0x4c, 0x9e, 0x0a, 0xbe, 0x1b, 0x8f, 0x81, 0x3d, 0x84, 0xf3, 0x41, 0x3e,
  0x4c, 0xc0, 0xcf, 0x3d, 0x0c, 0x95, 0xa7, 0xbd, 0x62, 0x78, 0x0c, 0x3e,
  0xf7, 0x1d, 0xf7, 0xbc, 0x62, 0xc4, 0xab, 0xbd, 0xde, 0x32, 0x1d, 0xbe,
  0x26, 0xd7, 0xbc, 0x3c, 0x43, 0x81, 0x99, 0xbe, 0xe0, 0xdc, 0x7e, 0x3e,
  0x62, 0xbc, 0x99, 0xbd, 0xc0, 0x6d, 0x10, 0xbe, 0xff, 0x4f, 0x7b, 0xbb,
  0xc3, 0xaa, 0x7c, 0xbd, 0x27, 0xdb, 0x6a, 0xbd, 0xe9, 0xc1, 0x7a, 0xbd,
  0x22, 0x15, 0x2f, 0xbe, 0x62, 0xbe, 0x5a, 0xbe, 0xfe, 0xc1, 0x60, 0xbd,
  0xdb, 0xa4, 0x2a, 0x3e, 0xef, 0x2e, 0xe8, 0x3c, 0x57, 0xc1, 0xa5, 0x3c,
  0x18, 0x0f, 0x60, 0xbd, 0xf6, 0xb5, 0xdc, 0xbd, 0x4b, 0xe2, 0x0e, 0x3e,
  0x55, 0x98, 0xd5, 0xbc, 0x4d, 0x55, 0x90, 0x3b, 0x2b, 0x73, 0x4d, 0x3d,
  0x0c, 0x90, 0x94, 0x3c, 0x8a, 0x0d, 0x75, 0x3d, 0xbd, 0x56, 0x29, 0x3d,
  0x05, 0x99, 0x40, 0x3e, 0xb6, 0xdf, 0xdf, 0x3d, 0xe4, 0xbf, 0xb3, 0xbb,
  0x0c, 0x76, 0x98, 0x3e, 0x2a, 0x27, 0x41, 0x3b, 0x1c, 0x57, 0x07, 0xbd,
  0x8f, 0xc0, 0x08, 0x3d, 0x89, 0x93, 0x53, 0x3d, 0x06, 0x2d, 0x0a, 0xbe,
  0x08, 0xa0, 0xa9, 0x3e, 0x95, 0x77, 0x30, 0x3e, 0x4c, 0x0e, 0x8d, 0x3c,
  0x28, 0x67, 0x05, 0x3d, 0x4a, 0x08, 0x82, 0xbd, 0x3d, 0xc8, 0x80, 0xbc,
  0xa4, 0xdc, 0x38, 0x3e, 0x00, 0x7b, 0x38, 0xbe, 0xbb, 0x91, 0x65, 0x3d,
  0xf6, 0xff, 0x80, 0x3c, 0xeb, 0x44, 0x0b, 0x3e, 0xf8, 0x61, 0xe8, 0x3d,
  0x17, 0x90, 0x24, 0x3d, 0x66, 0xab, 0x85, 0xbb, 0xf1, 0x12, 0x38, 0xbd,
  0x22, 0x84, 0xdf, 0x3e, 0x98, 0xfe, 0xee, 0xbb, 0x40, 0x33, 0xd0, 0xbd,
  0x27, 0xda, 0x00, 0xbe, 0x7e, 0x03, 0xca, 0xb9, 0x20, 0x9b, 0x5c, 0x3d,
  0xf9, 0x62, 0x95, 0xbc, 0x4b, 0x6e, 0x78, 0x3c, 0x0d, 0x4e, 0x3f, 0xbd,
  0x41, 0xe1, 0x12, 0xbe, 0x01, 0xa9, 0x29, 0xbc, 0x11, 0x25, 0x05, 0x3e,
  0xb5, 0x81, 0x15, 0xbd, 0x76, 0x2e, 0xb4, 0xbd, 0xf4, 0xcd, 0x32, 0xbe,
  0xcf, 0x1d, 0xd9, 0xbd, 0x72, 0xd7, 0xd1, 0x3c, 0x51, 0x3d, 0x9c, 0xbe,
  0x99, 0xd1, 0x43, 0xbe, 0x78, 0xd5, 0xe1, 0x3d, 0x09, 0xb8, 0x83, 0xbe,
  0xeb, 0xbc, 0x40, 0x3d, 0x99, 0xf4, 0x13, 0xbd, 0xd6, 0xd7, 0x16, 0xbe,
  0x67, 0x74, 0x41, 0xbe, 0x13, 0x2e, 0xdb, 0x3d, 0x32, 0xfb, 0xfd, 0x3d,
  0xf2, 0x8f, 0xf0, 0x3b, 0x13, 0xb9, 0x5d, 0xbc, 0xf3, 0x7d, 0xd0, 0xbd,
  0x1e, 0x6f, 0x17, 0xbe, 0x27, 0x7c, 0xaf, 0x3d, 0x04, 0xdf, 0x7b, 0xbe,
  0xc9, 0x09, 0x1b, 0x3d, 0x8c, 0x72, 0x14, 0xbe, 0x14, 0xa7, 0x65, 0x3c,
  0x75, 0x21, 0xf9, 0x3e, 0xb5, 0x17, 0x82, 0xbc, 0xc6, 0xe4, 0x7a, 0xbe,
  0x47, 0x50, 0xa6, 0xbd, 0x38, 0xef, 0xe0, 0xbe, 0x74, 0x5a, 0xc4, 0xbe,
  0x5c, 0x41, 0xf4, 0xbd, 0x75, 0xc9, 0x7f, 0x3e, 0x2f, 0xc7, 0xce, 0xbe,
  0x78, 0x47, 0x24, 0xbe, 0x5f, 0x9b, 0xa4, 0xbe, 0x34, 0xa8, 0x88, 0xbe,
  0xe2, 0x53, 0x06, 0xbf, 0x7d, 0xc7, 0x5e, 0x3d, 0xd5, 0xa1, 0x01, 0xbd,
  0xc6, 0x48, 0xe2, 0xbe, 0xda, 0x96, 0x8f, 0x3e, 0x2e, 0x4f, 0x02, 0xbf,
  0xb9, 0xe4, 0xf3, 0xbe, 0xdf, 0x44, 0x48, 0x3e, 0xe2, 0xf8, 0x88, 0x3e,
  0xe9, 0x5c, 0x87, 0x3e, 0x1f, 0x9c, 0x26, 0xbd, 0x3d, 0xc6, 0x01, 0xbe,
  0xe0, 0x1a, 0x27, 0x3e, 0x1d, 0x41, 0xe1, 0xbd, 0x15, 0xe0, 0x84, 0xbe,
  0xa6, 0x1e, 0x98, 0x3d, 0x81, 0x68, 0x2d, 0x3e, 0x3c, 0x6a, 0xbe, 0xbe,
  0xd9, 0x9b, 0x00, 0x3e, 0x68, 0x4a, 0xb4, 0x3d, 0xb1, 0x77, 0xce, 0xbe,
  0x9c, 0x32, 0x5b, 0x3e, 0xef, 0x9a, 0x8e, 0xbd, 0x0c, 0xa0, 0x3b, 0x3d,
  0x9e, 0x96, 0x4c, 0x3d, 0x94, 0x86, 0xa0, 0x3c, 0xf6, 0x02, 0xe7, 0x3d,
  0x5d, 0x92, 0xff, 0x3c, 0xee, 0xa2, 0x25, 0xbe, 0xb9, 0x3c, 0x18, 0x3d,
  0xbc, 0x34, 0x8e, 0xbd, 0x91, 0x89, 0xe6, 0xbe, 0xad, 0xad, 0x09, 0xbe,
  0x4e, 0x03, 0x71, 0xbe, 0xca, 0x7f, 0x08, 0xbe, 0x24, 0xa8, 0x91, 0xbc,
  0xb1, 0xa8, 0xa9, 0xbe, 0xa0, 0x92, 0x22, 0x3e, 0x2f, 0x69, 0xa9, 0x3c,
  0x12, 0x5d, 0x97, 0x3d, 0x81, 0x41, 0x27, 0x3d, 0xe5, 0x03, 0x47, 0x3e,
  0x2f, 0x9b, 0xad, 0xbd, 0xcb, 0x65, 0x13, 0xbd, 0x6b, 0xe3, 0xb1, 0xbe,
  0x52, 0xb8, 0xd1, 0xbc, 0x3e, 0x96, 0x84, 0x3e, 0x93, 0x04, 0xa6, 0xbd,
  0x48, 0xde, 0x46, 0x3d, 0x1b, 0x36, 0xa1, 0x3e, 0xd3, 0x1b, 0xbc, 0xbc,
  0x5e, 0x0f, 0x6a, 0x3e, 0x0c, 0x8a, 0x71, 0xbd, 0x3e, 0x6c, 0xa5, 0xbd,
  0x62, 0x85, 0xfd, 0xbd, 0x36, 0xf1, 0xcb, 0xbe, 0xa2, 0x2e, 0x84, 0xbd,
  0x53, 0x49, 0xbf, 0x3d, 0x20, 0xd0, 0x4c, 0xbe, 0xbe, 0x42, 0x8d, 0x3d,
  0xef, 0x00, 0x83, 0xbd, 0x62, 0x8f, 0x49, 0x3c, 0xb1, 0x6d, 0x9a, 0xbe,
  0x55, 0x32, 0x08, 0xbd, 0xf8, 0x78, 0xb5, 0xbe, 0x00, 0xad, 0x7d, 0xbd,
  0xed, 0x03, 0x9c, 0xbe, 0xff, 0x36, 0x13, 0xbf, 0xe2, 0x41, 0x93, 0xbd,
  0x2f, 0xb4, 0x30, 0xbe, 0xf2, 0xbb, 0x95, 0xbe, 0x68, 0x0d, 0x51, 0xbd,
  0x60, 0xba, 0x1e, 0xbf, 0x6e, 0x62, 0x17, 0x3f, 0x2b, 0xa0, 0x9d, 0x3d,
  0x7a, 0xe9, 0x48, 0xbf, 0x4a, 0x03, 0x91, 0x3c, 0xd8, 0x41, 0xe2, 0xbe,
  0x34, 0xc7, 0x01, 0xbf, 0xc4, 0x81, 0xbf, 0xbc, 0x78, 0x53, 0x56, 0x3e,
  0x5e, 0xa3, 0x09, 0xbe, 0xa4, 0x00, 0x1a, 0x3e, 0x4c, 0x8e, 0x59, 0x3d,
  0x97, 0xdb, 0x22, 0x3e, 0x88, 0x7e, 0xed, 0x3a, 0xcb, 0x8d, 0xa7, 0xbd,
  0xb9, 0x41, 0x6d, 0xbd, 0x21, 0xfb, 0x88, 0x3e, 0x74, 0x1c, 0x45, 0xbe,
  0x62, 0x9e, 0xea, 0x3d, 0xaa, 0x11, 0x97, 0x3d, 0x69, 0xd8, 0x96, 0xbe,
  0x0c, 0x5d, 0x7b, 0xbd, 0x56, 0xdf, 0x10, 0xbe, 0xe7, 0xfd, 0x30, 0xbe,
  0x24, 0x26, 0x05, 0x3c, 0xb5, 0xb5, 0x61, 0x3d, 0x0d, 0x19, 0x0c, 0x3e,
  0x5d, 0x52, 0x31, 0xbe, 0x7a, 0x9b, 0x62, 0xbe, 0x5f, 0x8d, 0x60, 0xbe,
  0x79, 0x55, 0x9f, 0xbe, 0x10, 0x13, 0x1b, 0xbe, 0xc2, 0x09, 0x1c, 0xbe,
  0xdb, 0x7e, 0xf1, 0xbd, 0xbf, 0x6f, 0xde, 0xbc, 0x7d, 0xe6, 0xeb, 0xbb,
  0x0c, 0x20, 0x98, 0xbe, 0xdf, 0x24, 0x59, 0xbd, 0x75, 0xfc, 0x02, 0x3d,
  0x73, 0x24, 0xbb, 0xbb, 0x07, 0x37, 0xf6, 0xbd, 0x3f, 0x9d, 0x5c, 0xbe,
  0xe1, 0xe0, 0x05, 0xbe, 0x5d, 0xd5, 0x17, 0xbe, 0x75, 0x6e, 0x44, 0xbe,
  0xfe, 0xc4, 0x89, 0xbe, 0xf3, 0x63, 0x63, 0x3e, 0x6a, 0x44, 0x63, 0xbe,
  0xc7, 0x38, 0x36, 0x3d, 0x67, 0xe5, 0x89, 0xbe, 0xf1, 0x4a, 0x45, 0xbe,
  0xd1, 0xb4, 0xb9, 0xbd, 0xc0, 0xea, 0x35, 0xbd, 0xba, 0xe8, 0xbc, 0xbd,
  0xde, 0x4f, 0x31, 0xbd, 0x90, 0xd8, 0x1f, 0xbd, 0x93, 0x94, 0xb7, 0xbe,
  0xea, 0x39, 0xc4, 0x3e, 0x65, 0xe6, 0x8b, 0x3d, 0xa1, 0xfc, 0x3f, 0xbe,
  0xf4, 0xe5, 0x5f, 0xbb, 0xd3, 0xef, 0x25, 0xbd, 0xac, 0xda, 0x51, 0xbd,
  0x87, 0x61, 0x54, 0x3e, 0xc1, 0x90, 0xc6, 0xbe, 0x17, 0x89, 0xc9, 0x3e,
  0xe3, 0x13, 0xd2, 0xbd, 0x0e, 0x6d, 0x5b, 0xbe, 0x1a, 0xe2, 0x95, 0xbd,
  0xaa, 0xcb, 0x2b, 0xbe, 0x9c, 0x97, 0x0a, 0xbe, 0x86, 0x63, 0x11, 0x3d,
  0x3f, 0xbb, 0x0a, 0xbe, 0x65, 0xa5, 0xb1, 0xbe, 0xaf, 0xb5, 0x12, 0x3e,
  0xb7, 0xf5, 0xfc, 0x3d, 0xf0, 0xc6, 0x06, 0xbd, 0x69, 0x98, 0x00, 0x3e,
  0xdd, 0x20, 0x22, 0xbe, 0x68, 0x4d, 0x4d, 0xbc, 0x92, 0x75, 0xa7, 0xbe,
  0xfd, 0xab, 0x80, 0xbe, 0x01, 0x94, 0x57, 0xbe, 0xe2, 0xcd, 0xbe, 0xbd,
  0x0e, 0x74, 0x19, 0xbd, 0xa0, 0x59, 0x95, 0xbd, 0xb2, 0x77, 0x02, 0xbe,
  0xad, 0x48, 0x2b, 0x3f, 0x88, 0x5b, 0x98, 0x3d, 0xa6, 0xd3, 0x01, 0xbe,
  0xc3, 0xcc, 0x18, 0x3e, 0xab, 0x72, 0x1b, 0xbd, 0xcd, 0x5d, 0x0c, 0xbe,
  0xb6, 0xdb, 0xfb, 0x3a, 0xff, 0x8b, 0x20, 0xbe, 0xa2, 0xcc, 0x2e, 0xbe,
  0xb3, 0x80, 0x00, 0x3e, 0xc9, 0xea, 0x83, 0xbe, 0x10, 0x10, 0xd3, 0xbc,
  0xfa, 0x2a, 0x68, 0x3d, 0x5e, 0x89, 0x05, 0xbf, 0x01, 0xdd, 0x79, 0x3d,
  0xbc, 0xd7, 0x2b, 0x3e, 0x3d, 0x91, 0xb9, 0xbe, 0x83, 0xcc, 0xb2, 0xbd,
  0xd5, 0xb1, 0xd3, 0x3c, 0x76, 0xfb, 0xaa, 0xbd, 0xf1, 0x3a, 0xa0, 0xbc,
  0xdb, 0xb3, 0x06, 0xbe, 0x3f, 0x41, 0x0e, 0x3c, 0x11, 0x10, 0x9d, 0x3d,
  0xb8, 0x3f, 0xd0, 0xbe, 0xfe, 0x86, 0x9a, 0xbe, 0x55, 0x8b, 0xfc, 0x3b,
  0x68, 0x0a, 0x14, 0xbe, 0xc3, 0x4b, 0x3a, 0xbe, 0xf9, 0xb9, 0x71, 0x3a,
  0x21, 0x2f, 0x11, 0xbd, 0x07, 0x63, 0xf9, 0xbd, 0x34, 0x39, 0x77, 0xbc,
  0x74, 0x1b, 0x41, 0xbe, 0xa0, 0x3b, 0x95, 0xbe, 0x9b, 0x8e, 0xe3, 0x3b,
  0xb6, 0x46, 0x24, 0xbe, 0xb6, 0x98, 0x2b, 0xbe, 0x27, 0x2f, 0x2e, 0xbd,
  0xfe, 0x03, 0xdb, 0xbd, 0x58, 0x95, 0x27, 0x3e, 0x27, 0xbf, 0x2d, 0x3e,
  0xb4, 0x57, 0xa2, 0x3e, 0xd1, 0x00, 0x13, 0xbd, 0xae, 0x59, 0xa6, 0xbd,
  0x5a, 0x76, 0x64, 0xbe, 0x22, 0x4b, 0x5d, 0xbc, 0x34, 0x39, 0x45, 0x3e,
  0x47, 0x52, 0xc4, 0xbd, 0x06, 0x86, 0x4a, 0x3e, 0xa2, 0x03, 0xdf, 0x3d,
  0x6c, 0x2a, 0xc8, 0x3b, 0x7d, 0x94, 0xa7, 0x3e, 0xee, 0xed, 0x14, 0xbe,
  0xad, 0x45, 0x30, 0xbd, 0x5d, 0xb4, 0x7e, 0xbd, 0x8a, 0x19, 0x32, 0xbe,
  0xcf, 0x2d, 0x37, 0xbd, 0xe5, 0x67, 0xfc, 0x3b, 0x81, 0xa3, 0x9d, 0xbd,
  0x9b, 0x0b, 0xcd, 0xbd, 0xd3, 0x41, 0x7f, 0x3b, 0x3f, 0xf7, 0x1e, 0xbe,
  0x50, 0xa7, 0x28, 0xbe, 0xe1, 0x12, 0xa8, 0xbe, 0x6f, 0x84, 0x01, 0xbc,
  0x59, 0xca, 0x8f, 0xbe, 0xa0, 0x98, 0x09, 0xbd, 0x8e, 0x3c, 0xd2, 0xbe,
  0x10, 0x0c, 0x27, 0x3e, 0xc4, 0x6c, 0xc9, 0xbe, 0x78, 0x4c, 0xf2, 0xbd,
  0x31, 0x4c, 0xa6, 0xbe, 0x7d, 0xac, 0xa9, 0xbd, 0xbb, 0x7f, 0xc3, 0xbe,
  0x6f, 0x19, 0x30, 0xbe, 0x5c, 0x79, 0xb9, 0xbe, 0x00, 0xdf, 0xd5, 0x3d,
  0xa7, 0xc6, 0xfa, 0xbd, 0xb9, 0xf8, 0x52, 0x3b, 0x8b, 0x0b, 0x73, 0xbe,
  0x86, 0xdf, 0x17, 0xbe, 0x7f, 0x25, 0xd2, 0xbe, 0xcb, 0xee, 0xb5, 0xbe,
  0xb2, 0xe2, 0x66, 0xbe, 0x5e, 0xcb, 0x8e, 0x3e, 0xa8, 0x72, 0x88, 0xbe,
  0x67, 0x2d, 0x6c, 0xbd, 0xed, 0xa8, 0xa3, 0xbe, 0x5c, 0x91, 0x94, 0xbe,
  0xa8, 0x54, 0xfe, 0xbe, 0x6a, 0xd8, 0xf8, 0xbd, 0xc1, 0xca, 0x64, 0xbe,
  0xb6, 0x4b, 0xb2, 0x3e, 0x7b, 0xf7, 0x15, 0x3e, 0x3c, 0x8f, 0xc3, 0x3e,
  0x81, 0x13, 0x2c, 0x3d, 0xa7, 0x86, 0xca, 0x3d, 0x45, 0x4e, 0xdb, 0x3e,
  0x5f, 0x0e, 0x94, 0xbd, 0xb8, 0x51, 0x95, 0x3c, 0x81, 0xcd, 0x88, 0xbe,
  0xae, 0x08, 0x80, 0xbd, 0xba, 0x19, 0x6c, 0xbc, 0xd1, 0x23, 0x8e, 0xbe,
  0xa2, 0x63, 0xd0, 0xbd, 0x57, 0x76, 0xd2, 0x3c, 0xe1, 0x3a, 0xed, 0xbd,
  0x42, 0x6e, 0xb9, 0x3e, 0x01, 0xd0, 0x55, 0xbe, 0x99, 0x89, 0x19, 0xbe,
  0x63, 0xd6, 0x12, 0xbe, 0x40, 0x42, 0x57, 0xbe, 0x7b, 0x64, 0xf4, 0xbd,
  0x09, 0x58, 0x06, 0xbe, 0xc1, 0x27, 0x01, 0xbe, 0xbe, 0xf0, 0x27, 0xbe,
  0xbd, 0x7d, 0xee, 0x3d, 0xd6, 0x8f, 0x41, 0xbe, 0x0b, 0x9b, 0x5e, 0xbe,
  0xcc, 0x33, 0xe8, 0xbd, 0x8c, 0x41, 0x99, 0xbd, 0xf3, 0xbb, 0x71, 0xbe,
  0xbf, 0xa4, 0x2a, 0xbe, 0xc9, 0x0e, 0x77, 0xbe, 0x6a, 0x7e, 0x14, 0x3e,
  0x0a, 0xdf, 0xff, 0xff, 0x10, 0x00, 0x00, 0x00, 0x08, 0x00, 0x00, 0x00,
  0x1c, 0x00, 0x00, 0x00, 0x38, 0x00, 0x00, 0x00, 0x04, 0x00, 0x00, 0x00,
  0x10, 0x00, 0x00, 0x00, 0x04, 0x00, 0x00, 0x00, 0x01, 0x00, 0x00, 0x00,
  0x08, 0x00, 0x00, 0x00, 0x1a, 0x00, 0x00, 0x00, 0x73, 0x65, 0x71, 0x75,
  0x65, 0x6e, 0x74, 0x69, 0x61, 0x6c, 0x2f, 0x63, 0x6f, 0x6e, 0x76, 0x32,
  0x64, 0x5f, 0x31, 0x2f, 0x43, 0x6f, 0x6e, 0x76, 0x32, 0x44, 0x00, 0x00,
  0x04, 0xdf, 0xff, 0xff, 0xfa, 0xdf, 0xff, 0xff, 0x04, 0x00, 0x00, 0x00,
  0x80, 0x01, 0x00, 0x00, 0x93, 0x40, 0x06, 0x3b, 0xb2, 0x5e, 0x46, 0x3d,
  0x13, 0x2b, 0x36, 0xbe, 0x04, 0xbb, 0x46, 0x3c, 0x93, 0x68, 0xa6, 0x3d,
  0xcf, 0x6b, 0x08, 0xbe, 0xcc, 0x40, 0x3b, 0x3d, 0xaa, 0x0b, 0x66, 0xbd,
  0x5f, 0x95, 0x8e, 0xbd, 0xbe, 0x4d, 0x31, 0x3d, 0x8f, 0x17, 0xc0, 0xbd,
  0xa9, 0xbe, 0xa1, 0x3c, 0xf6, 0x21, 0xc2, 0x3c, 0x07, 0x80, 0x3b, 0x3e,
  0x40, 0x90, 0x9e, 0xbe, 0x9b, 0xe0, 0x91, 0xbd, 0x72, 0xfc, 0xb9, 0x3b,
  0x84, 0xb7, 0x58, 0xbd, 0xaf, 0x9d, 0xeb, 0x3d, 0xa5, 0x8b, 0x04, 0xbe,
  0xed, 0x15, 0x0d, 0x3d, 0xc8, 0x5a, 0xe2, 0x3b, 0xff, 0xaf, 0xfa, 0xbd,
  0x0f, 0x0c, 0x7a, 0x3d, 0xd9, 0x12, 0xe2, 0x3c, 0x57, 0x9b, 0x82, 0xbd,
  0x04, 0x84, 0x1c, 0x3d, 0x46, 0xff, 0xcc, 0x3e, 0x0b, 0x9a, 0x8d, 0x3e,
  0x06, 0xe0, 0x58, 0x3e, 0x9a, 0xa4, 0xa3, 0xbd, 0x73, 0xf1, 0x04, 0x3c,
  0xe1, 0x1f, 0x63, 0xbd, 0xfb, 0x40, 0x2d, 0xbe, 0x5a, 0x5e, 0x9a, 0xbe,
  0x2a, 0x19, 0x60, 0xbe, 0x3d, 0x0a, 0x4c, 0x3e, 0xd6, 0xd1, 0xba, 0x3d,
  0xd2, 0x2a, 0xf5, 0x3d, 0x62, 0x6b, 0x1c, 0x3e, 0x5c, 0xa4, 0x87, 0x3e,
  0xb4, 0xc3, 0x80, 0x3b, 0xfc, 0x14, 0x91, 0xbe, 0x79, 0x77, 0x8e, 0xbe,
  0x71, 0xa8, 0xe6, 0xbd, 0x9c, 0x39, 0x06, 0xbe, 0x12, 0x34, 0x59, 0xbe,
  0x0e, 0xc0, 0xb4, 0xbc, 0x32, 0xcf, 0xac, 0x3c, 0x41, 0x79, 0x06, 0xbb,
  0x2d, 0x2c, 0x0b, 0xbc, 0x61, 0x66, 0x8d, 0xbc, 0x32, 0xf2, 0xc4, 0x3b,
  0xf2, 0xa2, 0x20, 0xbf, 0x01, 0x38, 0xf3, 0x3c, 0xb4, 0x25, 0x4b, 0xbd,
  0x00, 0x09, 0xb9, 0x3e, 0xdb, 0xce, 0xdf, 0xbb, 0x54, 0x49, 0xda, 0x3b,
  0xca, 0xa4, 0x98, 0x3e, 0x5e, 0x48, 0xb6, 0x3e, 0x67, 0xf8, 0x04, 0x3e,
  0x19, 0xbc, 0x28, 0x3d, 0x2f, 0x85, 0xa9, 0xbe, 0x03, 0x34, 0x5e, 0xbc,
  0xaa, 0x0b, 0x5c, 0x3e, 0x95, 0x89, 0x3f, 0xbe, 0xf0, 0xea, 0x96, 0xbd,
  0x9f, 0x92, 0x29, 0xbd, 0x22, 0x15, 0x82, 0x3e, 0x81, 0xe9, 0xad, 0xbd,
  0x15, 0x7e, 0xab, 0xbe, 0xa8, 0x07, 0xc4, 0x3e, 0x5d, 0xb3, 0xf4, 0xbd,
  0x62, 0xe3, 0xce, 0x3d, 0x1c, 0x0d, 0x32, 0x3d, 0x93, 0x5f, 0x84, 0x3d,
  0x45, 0xef, 0x90, 0x3d, 0x12, 0xc7, 0x91, 0xbe, 0x26, 0x79, 0xc1, 0xbc,
  0x35, 0xe6, 0xa2, 0xbd, 0xb8, 0x42, 0xf2, 0xbd, 0x8d, 0x3a, 0x0c, 0x3c,
  0x6a, 0x36, 0x89, 0x3d, 0x76, 0x8b, 0x61, 0xbd, 0x3f, 0x3a, 0xd8, 0xbe,
  0xe2, 0x4e, 0xd0, 0x38, 0x62, 0x9f, 0x1a, 0xbe, 0x84, 0x09, 0x37, 0x3d,
  0x51, 0xae, 0xb9, 0xbd, 0x2e, 0x2f, 0xa6, 0x3e, 0x02, 0x6d, 0x13, 0x3e,
  0xac, 0x66, 0xdc, 0x3d, 0x9b, 0x79, 0x34, 0xbc, 0x1a, 0xca, 0x44, 0x3e,
  0xfd, 0xfb, 0xca, 0xbc, 0xe2, 0xe0, 0xff, 0xff, 0x10, 0x00, 0x00, 0x00,
  0x07, 0x00, 0x00, 0x00, 0x1c, 0x00, 0x00, 0x00, 0x38, 0x00, 0x00, 0x00,
  0x04, 0x00, 0x00, 0x00, 0x08, 0x00, 0x00, 0x00, 0x04, 0x00, 0x00, 0x00,
  0x03, 0x00, 0x00, 0x00, 0x01, 0x00, 0x00, 0x00, 0x18, 0x00, 0x00, 0x00,
  0x73, 0x65, 0x71, 0x75, 0x65, 0x6e, 0x74, 0x69, 0x61, 0x6c, 0x2f, 0x63,
  0x6f, 0x6e, 0x76, 0x32, 0x64, 0x2f, 0x43, 0x6f, 0x6e, 0x76, 0x32, 0x44,
  0x00, 0x00, 0x00, 0x00, 0xdc, 0xe0, 0xff, 0xff, 0xd2, 0xe1, 0xff, 0xff,
  0x04, 0x00, 0x00, 0x00, 0xc0, 0x00, 0x00, 0x00, 0x95, 0xfd, 0x59, 0xbe,
  0xc2, 0xf4, 0x80, 0xbc, 0xc1, 0x21, 0xdc, 0xbd, 0xf7, 0x2b, 0xa1, 0xbe,
  0x50, 0xea, 0xb6, 0x3e, 0x38, 0x1e, 0x2b, 0x3e, 0x96, 0x8b, 0xb9, 0x3d,
  0x48, 0x97, 0x20, 0xbe, 0x63, 0x6c, 0xac, 0xbd, 0xa1, 0x4b, 0xd1, 0x3d,
  0x65, 0x81, 0x35, 0xbe, 0x5a, 0xae, 0xda, 0x3d, 0x8b, 0x6f, 0x8a, 0x3d,
  0xd6, 0xa3, 0x47, 0xbd, 0x55, 0xa2, 0xde, 0x3e, 0x3c, 0x1d, 0x2b, 0xbe,
  0xcd, 0x3b, 0x5b, 0x3e, 0xec, 0x10, 0x1d, 0xbd, 0xbd, 0xce, 0x22, 0xbd,
  0x12, 0x24, 0xaf, 0xbe, 0x19, 0xfe, 0xc3, 0x3e, 0xff, 0xa5, 0x17, 0x3e,
  0x3a, 0xa5, 0x93, 0xbd, 0x9d, 0x34, 0xb8, 0xbd, 0x73, 0x6a, 0x75, 0xbd,
  0xc3, 0x1e, 0x81, 0x3e, 0x3f, 0x1e, 0xfb, 0xbe, 0xf7, 0xce, 0x54, 0x3e,
  0x81, 0xa0, 0x14, 0x3d, 0x02, 0x47, 0xcb, 0xbd, 0x45, 0xdf, 0xcc, 0x3e,
  0x0a, 0x36, 0x34, 0xbe, 0xf5, 0x19, 0x63, 0xbe, 0x83, 0x44, 0xa9, 0xbd,
  0x83, 0x79, 0xd7, 0xbd, 0x1b, 0xd5, 0x9d, 0xbe, 0xb1, 0xe4, 0x81, 0x3e,
  0x99, 0x14, 0x17, 0x3e, 0x36, 0x2c, 0xec, 0xbe, 0x9d, 0xe5, 0x2c, 0xbe,
  0xd6, 0x53, 0x5d, 0x3c, 0x57, 0xb1, 0x8a, 0x3e, 0x22, 0x1c, 0x47, 0xbf,
  0x66, 0xca, 0xe1, 0x3d, 0x6c, 0xed, 0xa7, 0x3c, 0x00, 0x2e, 0xad, 0xbe,
  0xa8, 0xe6, 0x9a, 0x3e, 0x6a, 0xc1, 0xec, 0xbd, 0xfa, 0xe1, 0xff, 0xff,
  0x10, 0x00, 0x00, 0x00, 0x06, 0x00, 0x00, 0x00, 0x14, 0x00, 0x00, 0x00,
  0x30, 0x00, 0x00, 0x00, 0x02, 0x00, 0x00, 0x00, 0x03, 0x00, 0x00, 0x00,
  0x10, 0x00, 0x00, 0x00, 0x19, 0x00, 0x00, 0x00, 0x73, 0x65, 0x71, 0x75,
  0x65, 0x6e, 0x74, 0x69, 0x61, 0x6c, 0x2f, 0x64, 0x65, 0x6e, 0x73, 0x65,
  0x5f, 0x31, 0x2f, 0x4d, 0x61, 0x74, 0x4d, 0x75, 0x6c, 0x00, 0x00, 0x00,
  0xec, 0xe1, 0xff, 0xff, 0xe2, 0xe2, 0xff, 0xff, 0x04, 0x00, 0x00, 0x00,
  0x00, 0x1c, 0x00, 0x00, 0xda, 0x2b, 0x33, 0xbe, 0xe5, 0xff, 0x73, 0xbd,
  0xb9, 0x9f, 0xec, 0x3d, 0x6c, 0x3f, 0xd2, 0xbd, 0x75, 0x43, 0x4a, 0xbc,
  0xd0, 0x8a, 0x20, 0xbe, 0xc5, 0xfd, 0x89, 0xbd, 0xd4, 0x8c, 0xf7, 0xbd,
  0x8e, 0x3d, 0xc8, 0xbc, 0xbc, 0x1d, 0x62, 0xbe, 0xac, 0xeb, 0x2b, 0xbe,
  0xe7, 0x50, 0x68, 0x3d, 0x6f, 0x29, 0x42, 0xbe, 0x5a, 0x1f, 0x47, 0xbe,
  0x4d, 0x01, 0xc7, 0xbd, 0x64, 0x04, 0x51, 0xbe, 0x80, 0x29, 0x79, 0xbd,
  0x9a, 0x3a, 0x50, 0x3c, 0x16, 0xf1, 0x3b, 0xbe, 0x27, 0xb4, 0xc5, 0xbd,
  0xd6, 0xbc, 0x65, 0xbe, 0xeb, 0x4c, 0x60, 0xbe, 0x4c, 0x5a, 0xbd, 0x3c,
  0xfb, 0x90, 0xbb, 0x3d, 0xe1, 0xf0, 0xd7, 0x3c, 0x08, 0x8d, 0x5f, 0x3d,
  0x1f, 0xab, 0x01, 0x3e, 0x3e, 0xbc, 0x10, 0x3e, 0xd0, 0x6d, 0xc5, 0xbd,
  0x5f, 0xcd, 0x2a, 0xbe, 0x21, 0x5f, 0x88, 0xbd, 0xab, 0xe3, 0x2a, 0xbb,
  0xf7, 0xb6, 0x5c, 0xbe, 0xb9, 0x36, 0x92, 0xbd, 0xc8, 0xd3, 0x09, 0x3e,
  0x49, 0x85, 0x83, 0xbe, 0x0a, 0x69, 0xaf, 0xbd, 0x37, 0xe4, 0x99, 0xbd,
  0xb7, 0xf4, 0xc2, 0xbd, 0xb8, 0x02, 0xcf, 0xbd, 0xac, 0x51, 0x54, 0xbe,
  0x35, 0x1b, 0x36, 0x3b, 0xe5, 0x9c, 0xa6, 0xbd, 0xa1, 0x00, 0x40, 0xbe,
  0xd2, 0xdc, 0xce, 0xbd, 0x26, 0xd4, 0x08, 0xbe, 0x80, 0x09, 0x7b, 0x3d,
  0x83, 0x01, 0x24, 0x3c, 0x5d, 0x03, 0xab, 0xbb, 0x40, 0x9f, 0x43, 0xbd,
  0x01, 0xae, 0x12, 0xbe, 0xc5, 0xe3, 0xba, 0x3d, 0x73, 0xba, 0x33, 0xbe,
  0x3f, 0xf5, 0x73, 0xbd, 0x59, 0x80, 0x3d, 0x3c, 0x3b, 0x9d, 0x36, 0xbe,
  0x8f, 0xd8, 0xc8, 0xbd, 0x7f, 0xf1, 0x3c, 0xbe, 0xc9, 0xd9, 0x21, 0x3e,
  0x71, 0x02, 0x96, 0xbd, 0x0d, 0x52, 0x62, 0xbe, 0x40, 0x17, 0xac, 0xbd,
  0x83, 0xcf, 0xa5, 0xbd, 0xc5, 0x31, 0x6e, 0xbc, 0x41, 0x24, 0x6c, 0x3d,
  0x06, 0x97, 0x05, 0x3e, 0x4f, 0x02, 0x94, 0x3d, 0xd0, 0x28, 0x80, 0xbd,
  0xa1, 0xd6, 0x68, 0xbe, 0xff, 0x51, 0x80, 0xbe, 0xd5, 0xf0, 0x37, 0x3e,
  0x6e, 0x9f, 0x0e, 0xbc, 0x09, 0x83, 0x45, 0xbe, 0xa2, 0x96, 0x40, 0x3e,
  0x27, 0x0a, 0x07, 0xbc, 0xd5, 0x60, 0x58, 0xbd, 0x03, 0xc9, 0xc7, 0xbd,
  0xd1, 0xbb, 0x15, 0xbe, 0x9b, 0x92, 0xa0, 0x3c, 0x4d, 0x54, 0x8a, 0xbd,
  0xb5, 0xa5, 0xdc, 0x3d, 0x1d, 0x83, 0x44, 0x3d, 0x22, 0x33, 0xa7, 0x3d,
  0xbf, 0x52, 0x30, 0xbd, 0x5b, 0xb2, 0x47, 0xbc, 0x43, 0x1b, 0x17, 0xbe,
  0xe4, 0x72, 0xd1, 0xbc, 0xf8, 0x4e, 0x62, 0xbe, 0x23, 0x6b, 0x1d, 0x3c,
  0x8e, 0x86, 0xab, 0x3d, 0x15, 0x02, 0xa6, 0x3d, 0x84, 0xdf, 0xc8, 0xbd,
  0x3b, 0x87, 0x05, 0xbe, 0x67, 0xd1, 0x42, 0xbe, 0x87, 0x74, 0x32, 0xbe,
  0x98, 0x22, 0x1d, 0x3d, 0x9e, 0xdf, 0x80, 0x3c, 0xd3, 0x1b, 0xf9, 0xbd,
  0x48, 0xd9, 0x05, 0xbe, 0x7b, 0xc1, 0x3e, 0xbe, 0xb7, 0xd6, 0x01, 0xbe,
  0x9b, 0x10, 0x39, 0xbe, 0x63, 0xd8, 0x32, 0xbe, 0x1b, 0xa5, 0x1b, 0xbe,
  0xbd, 0x66, 0x13, 0xbe, 0x98, 0x67, 0x0c, 0x3e, 0xfd, 0x5c, 0x2b, 0xbe,
  0x61, 0xe0, 0x9d, 0x3d, 0xd2, 0x98, 0x04, 0x3d, 0x7b, 0x98, 0x63, 0xbd,
  0x0b, 0xc7, 0x34, 0x3e, 0xf0, 0x6d, 0x9a, 0xbe, 0x97, 0xe0, 0x04, 0x3e,
  0xfe, 0xa1, 0x21, 0x3d, 0x2b, 0x90, 0xac, 0x3e, 0x60, 0x4d, 0x8c, 0xbe,
  0xe6, 0xfc, 0x42, 0xbd, 0x4b, 0xff, 0xb6, 0xbd, 0xf7, 0x23, 0x7f, 0x3c,
  0xab, 0xd8, 0xa8, 0xbe, 0xbb, 0xaa, 0x93, 0x3d, 0xf5, 0xe4, 0xa6, 0xbe,
  0x25, 0xad, 0x16, 0x3d, 0xc0, 0x67, 0xc5, 0xbe, 0xb3, 0xe5, 0x42, 0xbd,
  0x92, 0xbc, 0x0b, 0xbd, 0x71, 0x9b, 0x8f, 0xbe, 0x4f, 0xbf, 0x0e, 0x3e,
  0x36, 0x95, 0x4a, 0xbd, 0xf5, 0x58, 0x61, 0x3d, 0x11, 0x16, 0x4f, 0x3e,
  0x3b, 0x59, 0x5f, 0xbe, 0xd1, 0x13, 0x2b, 0xbe, 0x6a, 0x6f, 0x49, 0xbe,
  0xbc, 0x22, 0xbe, 0xbe, 0x27, 0xbe, 0x26, 0x3e, 0xcb, 0xdd, 0x8c, 0x3b,
  0x06, 0x12, 0x99, 0x3e, 0x08, 0xfc, 0x1c, 0xbc, 0xc9, 0x97, 0x42, 0xbe,
  0x83, 0x6e, 0xf1, 0xbc, 0x95, 0xbd, 0x8d, 0xbe, 0xde, 0xc4, 0x4a, 0xbe,
  0x8c, 0xae, 0x7a, 0x3e, 0x78, 0xd2, 0xfa, 0xbd, 0x01, 0x10, 0x8d, 0xbc,
  0xd2, 0x07, 0xa3, 0x3e, 0x7b, 0xf3, 0x31, 0xbe, 0xde, 0x0b, 0xe3, 0x3d,
  0x94, 0xc9, 0x5e, 0xbd, 0x2c, 0x90, 0x0b, 0xbf, 0xdf, 0xa8, 0xd9, 0x3e,
  0xa0, 0x43, 0x84, 0xbd, 0x1d, 0x78, 0x79, 0x3d, 0x76, 0x5f, 0x94, 0xbe,
  0xa3, 0x94, 0x8b, 0xbe, 0x85, 0xc5, 0x84, 0x3e, 0x3a, 0x89, 0x8b, 0x3e,
  0x83, 0x8c, 0x16, 0xbe, 0xc2, 0xae, 0xa9, 0x3e, 0x0c, 0x04, 0x03, 0x3d,
  0x62, 0xa4, 0x20, 0xbe, 0x77, 0xf7, 0x9d, 0x3e, 0xa4, 0x3d, 0xb2, 0xbe,
  0x86, 0x01, 0xa6, 0x3c, 0x83, 0x88, 0xd7, 0xbc, 0xd8, 0x91, 0xbe, 0xbe,
  0x02, 0xd7, 0x64, 0x3e, 0xe1, 0x92, 0x2c, 0x3d, 0xc6, 0x86, 0x69, 0xbe,
  0x1e, 0x59, 0xdb, 0x3d, 0x37, 0x34, 0xf3, 0xbe, 0x35, 0x2d, 0x81, 0x3e,
  0xdf, 0x9e, 0x66, 0x3e, 0x99, 0xc4, 0xca, 0xbc, 0xf5, 0xfd, 0x66, 0x3e,
  0x23, 0xd8, 0xe8, 0x3d, 0x72, 0x80, 0xa1, 0x3e, 0xd5, 0x77, 0x59, 0x3e,
  0xd5, 0x22, 0x42, 0xbe, 0x7b, 0xa9, 0x99, 0xbc, 0x93, 0x53, 0x3a, 0xbc,
  0x57, 0x28, 0xbf, 0xbe, 0xc2, 0xf6, 0xdc, 0xbd, 0x82, 0x86, 0x7c, 0xbd,
  0xad, 0x81, 0x0f, 0xbe, 0x41, 0x84, 0x0a, 0x3e, 0xf5, 0x1c, 0x00, 0xbf,
  0xa9, 0xdc, 0xc3, 0x3e, 0x9f, 0x7a, 0x7e, 0x3e, 0xed, 0x16, 0x2e, 0xbe,
  0x1b, 0x16, 0x0f, 0x3e, 0x41, 0xe0, 0xe6, 0xbc, 0xd4, 0xbe, 0x07, 0x3f,
  0x0c, 0x74, 0x87, 0x3e, 0xb8, 0xb7, 0x83, 0xbd, 0xfe, 0xe9, 0xd2, 0xbd,
  0xe2, 0xc8, 0x80, 0xbc, 0xc2, 0x9e, 0x6e, 0xbe, 0xf1, 0x8f, 0x33, 0x3e,
  0x9d, 0xaf, 0x16, 0x3e, 0xd8, 0x15, 0x93, 0x3d, 0x54, 0x4c, 0x76, 0x3d,
  0x0d, 0x57, 0x95, 0xbe, 0x34, 0xff, 0x31, 0xbc, 0xe2, 0xa4, 0xc8, 0x3d,
  0x37, 0xdf, 0xeb, 0xbd, 0x8e, 0xe8, 0xfb, 0x3d, 0xb2, 0x6d, 0xb3, 0xbd,
  0x97, 0xa1, 0x09, 0x3e, 0xff, 0x26, 0x9b, 0xbe, 0x19, 0x6a, 0x1c, 0xbe,
  0x8b, 0xe1, 0xfb, 0x3d, 0xb1, 0x5b, 0xd3, 0xbd, 0x44, 0xd9, 0x1e, 0xbe,
  0xff, 0x5d, 0x2a, 0xbc, 0xdc, 0xa2, 0xc5, 0x3d, 0x94, 0x7f, 0x80, 0xbe,
  0xca, 0x2c, 0x2f, 0xbe, 0x50, 0x43, 0x74, 0xbe, 0xc4, 0xa8, 0xd8, 0x3d,
  0x0c, 0x5e, 0x98, 0x3d, 0xe7, 0x08, 0x10, 0xbb, 0x21, 0xdf, 0xb5, 0x3c,
  0x42, 0xec, 0x55, 0x3d, 0x97, 0x95, 0x93, 0xbd, 0xe6, 0x91, 0x70, 0x3c,
  0xef, 0xfd, 0x43, 0x3e, 0xca, 0x6d, 0x3b, 0x3c, 0xa7, 0x92, 0x0f, 0x3e,
  0x14, 0x06, 0x71, 0x3e, 0x3b, 0xae, 0x5d, 0x3e, 0x56, 0x71, 0x74, 0xbe,
  0x3e, 0x37, 0x59, 0x3e, 0xb9, 0x3a, 0x34, 0x3e, 0xaa, 0x3f, 0xf0, 0x3e,
  0xb4, 0x29, 0x28, 0x3e, 0xe8, 0x76, 0x8a, 0xbd, 0x88, 0x49, 0x04, 0xbe,
  0xfc, 0xc7, 0x43, 0xbe, 0xa7, 0xd5, 0xbe, 0xbd, 0x85, 0x1d, 0x9d, 0xbe,
  0x1a, 0x90, 0xec, 0xbd, 0x7b, 0x66, 0xf0, 0xbd, 0x33, 0x06, 0x70, 0x3d,
  0x0b, 0xf8, 0x4c, 0x3d, 0x73, 0xa1, 0x0b, 0x3e, 0xd9, 0x27, 0xf9, 0xbd,
  0x59, 0xff, 0xc0, 0xbd, 0xf9, 0x76, 0x9b, 0x3e, 0xe2, 0xe0, 0x33, 0xbe,
  0x0e, 0xb1, 0x39, 0x3e, 0x55, 0xab, 0x00, 0x3e, 0x83, 0x96, 0x60, 0x3d,
  0xe6, 0x10, 0xb0, 0xbd, 0x0d, 0x27, 0x78, 0xbd, 0x06, 0x1c, 0xa8, 0xbd,
  0x03, 0xf1, 0xe6, 0x3c, 0x7e, 0x53, 0x93, 0x3b, 0x51, 0x65, 0x62, 0xbe,
  0x5c, 0xea, 0x93, 0xbe, 0x0b, 0x34, 0x1c, 0xbd, 0x69, 0xc4, 0x37, 0x3e,
  0xba, 0x23, 0x1d, 0xbe, 0x94, 0x95, 0x21, 0x3e, 0xc4, 0x1a, 0x6c, 0xbe,
  0x5d, 0x8d, 0x37, 0xbe, 0x16, 0x34, 0xb4, 0x3d, 0xe9, 0xea, 0x43, 0x3c,
  0x04, 0xcd, 0xb1, 0xbe, 0x06, 0xe8, 0x9c, 0xbd, 0x56, 0xeb, 0x18, 0xbd,
  0xc1, 0xe8, 0x5e, 0x3d, 0x10, 0x0a, 0x57, 0xbd, 0x9a, 0xb8, 0x90, 0xbe,
  0xb7, 0xd8, 0x99, 0x3c, 0x1a, 0x44, 0x57, 0xbe, 0x05, 0xa1, 0xdc, 0xbd,
  0x2a, 0xee, 0xda, 0x3d, 0x8c, 0x2d, 0xd7, 0xbd, 0xee, 0xa6, 0x95, 0xbd,
  0x66, 0xec, 0x50, 0xbc, 0xed, 0x83, 0x5d, 0xbe, 0x08, 0x03, 0x85, 0xbc,
  0x21, 0x47, 0xa5, 0xbe, 0x76, 0x69, 0x27, 0xbf, 0x83, 0x28, 0xf1, 0xbc,
  0xd0, 0x6d, 0x03, 0xbf, 0x43, 0xee, 0x19, 0x3e, 0x87, 0xc7, 0x0d, 0xbd,
  0xfc, 0x5a, 0x84, 0xbe, 0xcc, 0xbd, 0xb3, 0xbd, 0xf9, 0x86, 0xd6, 0xbd,
  0x18, 0xd3, 0xed, 0xbd, 0xa1, 0xe7, 0xe5, 0xbc, 0x7e, 0xa9, 0x50, 0xbe,
  0xa9, 0x1e, 0xf8, 0x3d, 0xfd, 0x03, 0x61, 0xbd, 0xba, 0xe4, 0x1c, 0x3a,
  0xb9, 0x60, 0xb4, 0xbd, 0xad, 0x81, 0xa1, 0xbe, 0xa5, 0xa9, 0x17, 0xbf,
  0x7c, 0x7b, 0x29, 0xbc, 0xa7, 0xbd, 0xff, 0xbe, 0xf9, 0x53, 0x43, 0xbc,
  0x58, 0xda, 0x8a, 0x3d, 0x68, 0x10, 0x4f, 0xbe, 0x97, 0xfc, 0xdf, 0xbc,
  0x11, 0x2c, 0x87, 0xbd, 0xd3, 0xbd, 0xfc, 0xbd, 0xf1, 0x61, 0x98, 0x3d,
  0x42, 0x6c, 0xe9, 0x3d, 0x49, 0x6f, 0x35, 0xbe, 0xea, 0x67, 0x1e, 0x3f,
  0xc2, 0x05, 0x97, 0xbe, 0x16, 0xaa, 0x7d, 0xbe, 0x76, 0x53, 0x54, 0xbd,
  0xfc, 0x8e, 0x08, 0xbe, 0x31, 0xe2, 0x9a, 0x3d, 0x3a, 0x86, 0x38, 0xbf,
  0x21, 0x66, 0x35, 0x3e, 0xcb, 0x56, 0x1d, 0xbe, 0xd1, 0xc2, 0x81, 0xbc,
  0xde, 0x1f, 0x1d, 0x3e, 0x1b, 0xfe, 0x09, 0x3e, 0x40, 0x16, 0x42, 0x3d,
  0xde, 0x46, 0x9f, 0x3e, 0x77, 0x1f, 0x10, 0x3e, 0x88, 0x4e, 0x51, 0xbd,
  0x26, 0xf8, 0x56, 0x3e, 0xe6, 0x3a, 0x8a, 0xbd, 0xef, 0x85, 0x29, 0x3e,
  0xf6, 0xfd, 0x88, 0xbc, 0xfc, 0x36, 0x3e, 0x3d, 0x99, 0xa5, 0xd4, 0x3d,
  0xc5, 0x36, 0x50, 0xbd, 0x78, 0x9f, 0xdc, 0x3d, 0x97, 0x7f, 0xc8, 0xbd,
  0x46, 0xc4, 0x37, 0xbe, 0x64, 0xe7, 0x7a, 0xbe, 0x0d, 0x77, 0xe2, 0x3d,
  0x1f, 0x7e, 0xd7, 0xbd, 0x5f, 0x5b, 0x78, 0x3e, 0x16, 0x92, 0xc5, 0xbc,
  0x4e, 0x30, 0x4b, 0xbe, 0x15, 0x75, 0x3c, 0xbb, 0x6e, 0x16, 0x14, 0x3e,
  0x9d, 0x59, 0x24, 0x3e, 0x8b, 0xf7, 0x23, 0xbe, 0x31, 0xec, 0xe1, 0xbd,
  0x1c, 0x2d, 0x99, 0xbd, 0x24, 0x22, 0xd0, 0xbd, 0x04, 0xfb, 0xea, 0x3c,
  0xe4, 0xd6, 0x40, 0xbe, 0x76, 0x7d, 0x6b, 0xbe, 0xc2, 0x31, 0x47, 0xbe,
  0x15, 0x06, 0x16, 0xbd, 0xea, 0x47, 0x9f, 0xbd, 0xb4, 0x1e, 0xe1, 0x3e,
  0x95, 0x6b, 0x17, 0xbe, 0x07, 0xf5, 0x63, 0x3d, 0x31, 0x1d, 0xa3, 0x3e,
  0x03, 0xc2, 0x87, 0xbb, 0xb1, 0xc8, 0x58, 0xbe, 0x27, 0x6b, 0xff, 0xbd,
  0xdc, 0xa1, 0x46, 0xbd, 0x28, 0xf5, 0xc9, 0x3d, 0x71, 0x7e, 0x5f, 0x3d,
  0x0d, 0x1f, 0x35, 0xbd, 0x49, 0x10, 0x8c, 0x3c, 0x8b, 0xc1, 0x06, 0xbe,
  0xee, 0xfd, 0x48, 0xbe, 0x5b, 0x7f, 0xf9, 0x3c, 0xca, 0x1e, 0x03, 0xbe,
  0x15, 0xfc, 0xf7, 0x3e, 0x5d, 0xa9, 0x8d, 0xbe, 0xd6, 0x9a, 0x25, 0xbc,
  0x8f, 0x06, 0x15, 0x3f, 0xf9, 0xdc, 0x15, 0x3e, 0x7c, 0x09, 0x0e, 0x3d,
  0x77, 0x8d, 0x9c, 0x3d, 0xb8, 0xeb, 0xe0, 0x3d, 0x6d, 0x46, 0x37, 0xbe,
  0x43, 0x76, 0xfb, 0x3d, 0xdb, 0x3e, 0x01, 0x3c, 0xa7, 0x20, 0x4f, 0xbe,
  0xf8, 0xec, 0x5e, 0x3e, 0x77, 0xd5, 0x50, 0xbe, 0xb9, 0xc0, 0x0b, 0x3c,
  0x90, 0x9a, 0x01, 0xbd, 0xfc, 0xba, 0xcc, 0x3e, 0x28, 0xee, 0x11, 0xbd,
  0x66, 0xc3, 0x79, 0x3e, 0xb0, 0x49, 0x33, 0x3c, 0xb1, 0xb7, 0x54, 0xbe,
  0xc9, 0xde, 0x04, 0x3e, 0x65, 0xe7, 0x71, 0xbe, 0x35, 0x0e, 0xcf, 0xbd,
  0x9e, 0x48, 0x62, 0xbe, 0x16, 0x81, 0x7e, 0x3d, 0x6b, 0xfa, 0x66, 0x3e,
  0x9b, 0x8c, 0x14, 0x3e, 0x62, 0x93, 0x47, 0xbe, 0x5b, 0xfb, 0x53, 0xbe,
  0xd3, 0xc0, 0x18, 0xbe, 0x36, 0xe9, 0xac, 0xbd, 0x0d, 0x61, 0x8b, 0x3e,
  0x42, 0xa5, 0xfe, 0xbd, 0x33, 0x68, 0xb7, 0x3d, 0x92, 0xd4, 0x4f, 0x3e,
  0xaa, 0xdd, 0xf1, 0xbd, 0xa9, 0xb0, 0xa6, 0x3e, 0x94, 0x1e, 0x00, 0xbe,
  0x9c, 0x2e, 0x01, 0xbc, 0x17, 0x00, 0xb9, 0xbd, 0x39, 0x30, 0x60, 0x3d,
  0xa6, 0xca, 0x7e, 0xbd, 0x90, 0xe2, 0x1d, 0x3e, 0xd7, 0x3b, 0x23, 0xbd,
  0x38, 0x4c, 0x9b, 0xbe, 0x1f, 0x6d, 0x99, 0xbc, 0xa6, 0x5d, 0x51, 0xbe,
  0x84, 0x98, 0x38, 0x3e, 0xd4, 0x8b, 0x2e, 0xbe, 0xcf, 0x0d, 0xa5, 0xbd,
  0x04, 0xa8, 0x1c, 0xbd, 0x12, 0x29, 0x29, 0xbc, 0xf2, 0x5e, 0xc5, 0x3c,
  0x45, 0x33, 0xb9, 0xbd, 0x68, 0x45, 0x6c, 0xbe, 0xa0, 0x32, 0xd1, 0xbd,
  0xd3, 0xe6, 0x8d, 0x3e, 0xa8, 0x25, 0x07, 0x3f, 0x33, 0xe9, 0x58, 0xbd,
  0x6c, 0x95, 0x34, 0x3d, 0xeb, 0xf7, 0x31, 0xbe, 0x1b, 0x35, 0x3e, 0xbd,
  0xc4, 0xf0, 0x57, 0xbe, 0xfa, 0x1a, 0xb7, 0x3d, 0x91, 0x71, 0x25, 0x3d,
  0x13, 0x14, 0xc5, 0x3d, 0xdd, 0x65, 0x30, 0xbc, 0x19, 0xd1, 0xd5, 0xbd,
  0xb4, 0x8e, 0x6d, 0xbd, 0xd6, 0x89, 0x5b, 0xbd, 0xca, 0xbc, 0xe3, 0xbd,
  0xe2, 0x84, 0x24, 0xbe, 0x9e, 0xa7, 0x25, 0xbd, 0xcb, 0xb9, 0x2d, 0xbe,
  0xbf, 0x55, 0x83, 0xbc, 0x66, 0x34, 0xf6, 0x3d, 0xe2, 0xe6, 0xec, 0x3c,
  0xc5, 0x97, 0x30, 0xbd, 0x51, 0xa4, 0xe9, 0x3d, 0x24, 0x5b, 0xab, 0x3e,
  0x0f, 0xd8, 0x88, 0x3c, 0x3c, 0xc3, 0x80, 0x3c, 0x55, 0xe8, 0x4f, 0x3e,
  0x22, 0x54, 0x20, 0xbe, 0x5a, 0x75, 0xb0, 0x3e, 0xa1, 0xc9, 0x21, 0x3e,
  0x2b, 0x7f, 0xbf, 0x3d, 0x88, 0xc8, 0x12, 0xbe, 0x31, 0x70, 0x12, 0x3d,
  0x06, 0x35, 0x4e, 0xbe, 0xb8, 0x18, 0x0c, 0xbe, 0xe9, 0xbf, 0xfa, 0x3d,
  0xfe, 0x4d, 0xa0, 0xbd, 0x33, 0xe4, 0xdb, 0xbd, 0x6f, 0x47, 0x9b, 0xbc,
  0xcf, 0xdd, 0x99, 0xbe, 0xdb, 0x15, 0xcb, 0x3d, 0x56, 0x75, 0xa1, 0x3c,
  0x16, 0x24, 0xcf, 0x3a, 0x34, 0x3c, 0x49, 0xbb, 0xfa, 0x4f, 0x6b, 0xbe,
  0xb3, 0x90, 0x4b, 0x3e, 0xf7, 0x51, 0x61, 0xbd, 0x27, 0xea, 0x9c, 0xbd,
  0x61, 0x3d, 0xce, 0x3d, 0x03, 0x83, 0x41, 0xbe, 0x11, 0x55, 0x13, 0xbe,
  0xf1, 0x97, 0xe9, 0xbc, 0xe0, 0x3f, 0x5f, 0xbe, 0x68, 0x15, 0x3f, 0xbe,
  0x27, 0x38, 0x97, 0xbd, 0x37, 0x02, 0x8b, 0xbe, 0xd2, 0x40, 0x9c, 0xbd,
  0x31, 0x0e, 0x23, 0xbe, 0x08, 0x69, 0x42, 0xbe, 0xa2, 0x93, 0x46, 0xbe,
  0x84, 0x6e, 0xd2, 0xbd, 0xd7, 0x09, 0x95, 0x3d, 0x5d, 0x15, 0x48, 0xbe,
  0xae, 0xf8, 0x5e, 0x3c, 0x82, 0x4f, 0x1b, 0x3d, 0x68, 0x18, 0x19, 0xbd,
  0x93, 0xb6, 0x9c, 0xbd, 0xfe, 0x82, 0xbe, 0xbd, 0x81, 0xbc, 0xf1, 0xbd,
  0xe0, 0xc1, 0x26, 0xbe, 0x91, 0x03, 0xa8, 0xbd, 0x17, 0xff, 0x7e, 0xbe,
  0xc3, 0xae, 0x6d, 0xbc, 0x1d, 0x0b, 0x0d, 0xbe, 0x5a, 0xdd, 0xc3, 0xbd,
  0xe0, 0x5f, 0xfc, 0x3d, 0x81, 0x80, 0x49, 0xbe, 0x10, 0xe8, 0x56, 0xbe,
  0x25, 0x3b, 0x7a, 0xbe, 0x41, 0x51, 0x20, 0x3d, 0xdb, 0x14, 0xaf, 0xbd,
  0x6b, 0x04, 0xc7, 0xbd, 0xde, 0x4a, 0x01, 0x3d, 0x93, 0x23, 0xb9, 0xbd,
  0x0e, 0x2d, 0x91, 0xbd, 0xdb, 0xaa, 0xcb, 0x3d, 0x41, 0x7a, 0xf3, 0xbc,
  0xe6, 0x10, 0xee, 0x3c, 0x68, 0xe3, 0x5d, 0x3e, 0x45, 0xd4, 0x54, 0x3d,
  0x90, 0x6e, 0xe0, 0x3e, 0xd9, 0x0f, 0xdc, 0xbd, 0x32, 0xa3, 0x27, 0x3b,
  0x16, 0x8d, 0x43, 0xbd, 0x9e, 0x56, 0x71, 0x3d, 0xf2, 0xc3, 0x58, 0xbe,
  0xe7, 0x30, 0x02, 0xbf, 0xb1, 0xa0, 0xb6, 0x3d, 0xf4, 0x6e, 0x88, 0x3b,
  0xb4, 0x07, 0x49, 0x3a, 0xdd, 0x89, 0x83, 0x3b, 0x0f, 0xc0, 0xd6, 0x3d,
  0xaa, 0x00, 0x4e, 0xbd, 0xb4, 0x14, 0xc2, 0x3c, 0x85, 0x33, 0x4b, 0x3e,
  0x5a, 0x48, 0x41, 0xbd, 0x22, 0x41, 0x82, 0x3e, 0xcb, 0x7d, 0xde, 0x3d,
  0xbf, 0xd5, 0x48, 0xbe, 0xda, 0x19, 0x14, 0x3e, 0x91, 0xa2, 0xe2, 0x3d,
  0x72, 0x94, 0x29, 0x3e, 0x58, 0x99, 0xc7, 0x3d, 0x89, 0x1b, 0x50, 0xbd,
  0x2d, 0xf5, 0x48, 0x3d, 0xd8, 0x72, 0x83, 0x3c, 0x55, 0x9d, 0x83, 0x3b,
  0x30, 0xa0, 0xc4, 0x3d, 0x0f, 0x19, 0xdc, 0xbc, 0x53, 0xbc, 0xa1, 0x3d,
  0x3d, 0xef, 0x1d, 0xbc, 0xc8, 0x55, 0x40, 0xbd, 0x0b, 0x76, 0x7c, 0x3e,
  0x0f, 0x4f, 0x9c, 0x3d, 0x5e, 0xa1, 0x21, 0x3e, 0xb2, 0x67, 0x43, 0x3d,
  0x94, 0x88, 0xd4, 0x3d, 0xd7, 0x96, 0x24, 0x3d, 0xff, 0x1c, 0x8a, 0xbc,
  0x8d, 0x9e, 0x26, 0x3d, 0x92, 0xc6, 0x23, 0x3e, 0x6c, 0x71, 0x5f, 0x3e,
  0xa8, 0x72, 0x2a, 0xbe, 0xff, 0x62, 0xb5, 0xbd, 0x5e, 0xc4, 0x2f, 0x3b,
  0xe4, 0xc2, 0xce, 0x3d, 0x94, 0x45, 0xa0, 0xbe, 0xac, 0x10, 0x83, 0x3e,
  0x7f, 0xf9, 0xff, 0xbd, 0x91, 0x53, 0x20, 0xbe, 0x8b, 0xae, 0xc0, 0xbe,
  0xf5, 0x92, 0x30, 0xbd, 0x8d, 0xbe, 0x7b, 0x3d, 0x10, 0x1b, 0xc4, 0x3b,
  0x41, 0x6c, 0x19, 0x3e, 0x3e, 0x03, 0xf6, 0x3d, 0xf9, 0x0d, 0xab, 0x3e,
  0xcb, 0xad, 0xf8, 0x3d, 0x9c, 0x0b, 0x38, 0xbe, 0x3d, 0xa3, 0x2b, 0xbd,
  0xa2, 0x0b, 0x91, 0xbd, 0xfb, 0x65, 0x01, 0xbf, 0x72, 0x34, 0xb9, 0x3e,
  0x44, 0x6a, 0xb0, 0xbe, 0x43, 0x92, 0xb8, 0x3d, 0xfd, 0xed, 0x16, 0x3e,
  0x3b, 0xd3, 0xec, 0xbd, 0x6f, 0x9e, 0x5b, 0xbd, 0x60, 0x86, 0x66, 0x3d,
  0xcf, 0xdd, 0x3c, 0xbe, 0x59, 0xd6, 0x75, 0x3d, 0x21, 0x90, 0x80, 0xbe,
  0x8e, 0x6b, 0x3b, 0x3e, 0x50, 0x67, 0xcb, 0xbc, 0x13, 0x1e, 0xa2, 0xbe,
  0x4a, 0xcb, 0x04, 0x3e, 0xa8, 0x79, 0x00, 0xbd, 0xee, 0x68, 0x90, 0xbe,
  0x6e, 0x96, 0x05, 0x3f, 0x11, 0xa3, 0x95, 0x3c, 0x08, 0xe3, 0x55, 0x3e,
  0xec, 0x2c, 0x69, 0xbe, 0x20, 0x15, 0x17, 0xbe, 0x49, 0x67, 0x5b, 0x3e,
  0xdc, 0x58, 0x93, 0x3e, 0x81, 0x30, 0x94, 0x3d, 0x9e, 0xa0, 0xfb, 0xbd,
  0x92, 0x17, 0x95, 0xbe, 0x23, 0xe7, 0x46, 0xbe, 0x83, 0x13, 0x13, 0x3e,
  0x43, 0xa4, 0xc4, 0xbe, 0x8d, 0x5d, 0x8e, 0x3c, 0x76, 0x30, 0x69, 0x3d,
  0x88, 0xed, 0xf8, 0xbe, 0x84, 0x55, 0x08, 0xbd, 0xae, 0x06, 0xaa, 0xbd,
  0x8e, 0x11, 0xf2, 0x3d, 0x90, 0x10, 0xb5, 0x3d, 0x53, 0xed, 0xb5, 0xbe,
  0x9b, 0x96, 0x94, 0x3e, 0x1f, 0x67, 0x7e, 0x3e, 0x58, 0xb4, 0xde, 0x3d,
  0xf2, 0x0e, 0x8e, 0x3e, 0x7f, 0x18, 0xbf, 0xbd, 0x49, 0xc3, 0xfe, 0x3e,
  0xb3, 0x61, 0x55, 0x3e, 0x54, 0x3c, 0x06, 0xbe, 0x2e, 0x7f, 0xeb, 0xbd,
  0xc6, 0xa3, 0xee, 0x3b, 0xd0, 0x79, 0x76, 0xbd, 0x34, 0x8c, 0x8e, 0xbe,
  0x66, 0x17, 0xa5, 0xbd, 0x4b, 0x62, 0x97, 0xbd, 0x87, 0x81, 0x06, 0x3e,
  0x45, 0x69, 0x93, 0xbe, 0x40, 0xbc, 0x76, 0x3e, 0x7d, 0x17, 0x30, 0xbe,
  0xed, 0x3c, 0xf4, 0xbc, 0x76, 0x19, 0x7d, 0x3e, 0xdf, 0x90, 0x7b, 0xbe,
  0xc9, 0xa3, 0xcf, 0x3e, 0xc4, 0x90, 0x09, 0x3e, 0xa4, 0x7d, 0x4e, 0xbd,
  0x56, 0x19, 0xc7, 0xbd, 0x4b, 0x10, 0xb1, 0xbc, 0xb9, 0x82, 0xa5, 0xbe,
  0xd0, 0xd5, 0x42, 0x3e, 0xe0, 0x49, 0xbc, 0xbe, 0x6d, 0xa1, 0x09, 0x3e,
  0xcf, 0xc9, 0x1c, 0x3e, 0xce, 0x38, 0x0d, 0xbd, 0x1e, 0x46, 0xd1, 0x3c,
  0x7a, 0xd6, 0xbc, 0xbe, 0x88, 0x23, 0xcc, 0xbc, 0xa4, 0x22, 0x0d, 0xbe,
  0xae, 0x35, 0xf3, 0x3c, 0x80, 0x5e, 0x84, 0xbe, 0x0c, 0xb4, 0x55, 0xbe,
  0x41, 0x3a, 0x23, 0xbe, 0x39, 0x5b, 0x7f, 0x3d, 0xe3, 0x32, 0x20, 0x3c,
  0x95, 0x2a, 0x9f, 0xbe, 0xb3, 0xc3, 0x41, 0xbe, 0x52, 0x58, 0x3b, 0xbd,
  0xf3, 0x8f, 0xdd, 0xbe, 0x6f, 0x2a, 0x4f, 0xbe, 0x5f, 0xf9, 0xcc, 0xbe,
  0xeb, 0xab, 0xac, 0x3d, 0x79, 0x18, 0xa8, 0x3d, 0x9b, 0xac, 0x97, 0xbd,
  0xfe, 0x74, 0x76, 0xbd, 0xaf, 0xda, 0x6f, 0x3e, 0xc7, 0xb1, 0x2e, 0x3e,
  0x7a, 0x24, 0x87, 0xbd, 0x22, 0xda, 0xb3, 0xbd, 0x51, 0x43, 0x4f, 0xbd,
  0xdd, 0x25, 0xc4, 0xbd, 0x79, 0x1f, 0x8e, 0x3d, 0xb4, 0x39, 0x10, 0xbe,
  0x79, 0x64, 0x23, 0xbe, 0xb4, 0x26, 0x64, 0xbe, 0x61, 0xaa, 0xcd, 0xbd,
  0x6f, 0xe3, 0xc1, 0x3d, 0xaa, 0xf7, 0x60, 0xbe, 0xab, 0x86, 0x77, 0xbe,
  0x84, 0x3a, 0xe6, 0x3e, 0x21, 0x9f, 0xbc, 0xbd, 0x4e, 0xf5, 0xe2, 0x3e,
  0xb8, 0xa1, 0xcb, 0x3e, 0x72, 0x2c, 0x94, 0x3d, 0xfe, 0x35, 0x3b, 0x3e,
  0x44, 0xa9, 0x33, 0x3e, 0x7a, 0xb1, 0x70, 0xbe, 0xbe, 0x8e, 0x6b, 0x3d,
  0xf6, 0x0a, 0x32, 0xbe, 0xf1, 0xdb, 0xb5, 0xbc, 0x18, 0x05, 0x56, 0xbe,
  0x1a, 0xe5, 0xc4, 0x3d, 0x42, 0x39, 0xfd, 0xbd, 0x54, 0x3d, 0x07, 0xbe,
  0xa1, 0xfa, 0x3b, 0xbe, 0x94, 0x5f, 0xbc, 0x3d, 0x94, 0x13, 0xef, 0xbc,
  0xc8, 0xef, 0xc3, 0x3e, 0x36, 0xa9, 0x63, 0x3e, 0x97, 0xd8, 0x31, 0xbe,
  0x72, 0x77, 0x7c, 0xbd, 0xa9, 0x40, 0x05, 0x3d, 0x7c, 0x69, 0x1a, 0xbe,
  0xb4, 0x1c, 0xb9, 0x3d, 0x6a, 0x92, 0xb3, 0x3d, 0x8c, 0x41, 0x50, 0xbe,
  0xe5, 0xc8, 0xe6, 0xbd, 0x51, 0x5b, 0x7c, 0xbc, 0x59, 0x9c, 0x28, 0xbe,
  0xdc, 0x1b, 0x86, 0x3c, 0xdf, 0xcc, 0xd1, 0xbc, 0xb9, 0x0c, 0xda, 0x3e,
  0x3c, 0x4c, 0x17, 0x3e, 0xf5, 0x46, 0xe5, 0x3e, 0xdd, 0xff, 0xca, 0x3e,
  0xf9, 0x1b, 0x88, 0x3d, 0x5e, 0x3a, 0xe6, 0x3c, 0xa5, 0xff, 0xb9, 0xbd,
  0x06, 0xfb, 0x49, 0xbe, 0x6c, 0x50, 0x4c, 0x3c, 0xe5, 0x1c, 0x16, 0xbe,
  0x5b, 0x52, 0x4c, 0xbd, 0x21, 0x25, 0xd9, 0x3d, 0x3a, 0xbc, 0x4e, 0xbd,
  0xa1, 0x9e, 0x34, 0xbe, 0x36, 0xbd, 0x1f, 0xbe, 0xe3, 0xbf, 0xae, 0xbd,
  0x3f, 0xb9, 0xa9, 0x3e, 0x8c, 0x66, 0x38, 0xbe, 0x09, 0x9c, 0xfb, 0x3e,
  0x68, 0xbf, 0xcb, 0x3e, 0x68, 0xa2, 0x1a, 0xbe, 0xd8, 0xa4, 0x35, 0x3b,
  0x96, 0xd5, 0x7d, 0xbe, 0xf3, 0x7b, 0xbf, 0xbd, 0xa6, 0x00, 0x87, 0x3e,
  0x43, 0x15, 0x99, 0x3b, 0x53, 0x2b, 0x9b, 0xbd, 0x82, 0x9e, 0x85, 0xbd,
  0xab, 0x54, 0x17, 0xbe, 0x74, 0x2a, 0x17, 0x3e, 0x38, 0xc8, 0xf6, 0xbd,
  0xe4, 0x11, 0x91, 0xbe, 0xce, 0x54, 0x83, 0x3e, 0xf6, 0x8b, 0x10, 0xbe,
  0x27, 0x18, 0x91, 0x3e, 0x07, 0xb2, 0xe8, 0x3e, 0x93, 0xb7, 0x02, 0xbe,
  0x10, 0x2d, 0xef, 0xbd, 0xca, 0xb5, 0xdf, 0xbd, 0xb0, 0xeb, 0x59, 0xbe,
  0x96, 0x26, 0xb5, 0x3e, 0x29, 0xa1, 0x0e, 0xbd, 0xde, 0x0f, 0xbf, 0xbd,
  0x5f, 0xed, 0xc3, 0xbd, 0x88, 0x66, 0x77, 0x3d, 0xad, 0x0b, 0x2c, 0x3e,
  0x4c, 0x40, 0x74, 0xbd, 0x34, 0xf3, 0x73, 0x3d, 0x21, 0x3c, 0xea, 0x3e,
  0x17, 0x6e, 0x08, 0xbe, 0xb9, 0x71, 0x47, 0x3e, 0xd0, 0x40, 0x62, 0x3e,
  0x63, 0x9a, 0xb6, 0xbe, 0xa2, 0x7e, 0x04, 0x3c, 0xc9, 0xac, 0x0e, 0xbe,
  0x84, 0xb8, 0x14, 0xbe, 0x00, 0xc4, 0x88, 0x3e, 0x9d, 0x71, 0xf2, 0xbd,
  0xd6, 0xe3, 0x8a, 0xbe, 0xb1, 0x2b, 0x75, 0xbe, 0xfa, 0x18, 0x5b, 0x3e,
  0xf6, 0xb2, 0x3d, 0xbd, 0x65, 0xdd, 0x4d, 0xbe, 0xec, 0x35, 0xc9, 0xbd,
  0x00, 0x1d, 0x9c, 0x3e, 0x06, 0x6e, 0xa9, 0xbe, 0xb6, 0xe8, 0x03, 0xbc,
  0xea, 0x4f, 0x6b, 0xbe, 0x63, 0x2a, 0x0d, 0xbe, 0x29, 0x19, 0xcd, 0x3d,
  0x54, 0xd3, 0x14, 0x3d, 0x58, 0x87, 0x68, 0x3d, 0x09, 0xe8, 0xe5, 0x3c,
  0x31, 0xea, 0x67, 0x3e, 0xf1, 0x4e, 0xe9, 0xbd, 0x5d, 0x46, 0x9e, 0x3e,
  0xff, 0x6d, 0x4d, 0xbd, 0x9a, 0x8e, 0x02, 0x3f, 0x92, 0x17, 0x0d, 0x3e,
  0x19, 0x3c, 0x0c, 0x3e, 0x6c, 0x07, 0x23, 0xbe, 0xdc, 0xb1, 0x98, 0xbd,
  0x47, 0xb7, 0x43, 0x3d, 0x87, 0x3b, 0x3a, 0xbe, 0xcf, 0x7c, 0x52, 0x3c,
  0x90, 0xfa, 0x5c, 0xbe, 0xf9, 0xb0, 0x61, 0x3e, 0xad, 0xca, 0x5d, 0x3c,
  0xd3, 0xba, 0xaa, 0x3d, 0x41, 0xcf, 0xd0, 0xbd, 0xac, 0x95, 0xe9, 0xbd,
  0xec, 0x41, 0x01, 0x3e, 0x45, 0x3a, 0xd0, 0xbd, 0xce, 0x85, 0xc3, 0xbd,
  0x65, 0x49, 0x51, 0x3e, 0x08, 0x15, 0x50, 0x3d, 0x5d, 0xa6, 0x00, 0x3e,
  0xc4, 0x12, 0x66, 0x3c, 0xe5, 0x03, 0x5a, 0x3d, 0xe9, 0x44, 0x55, 0xbe,
  0xb4, 0xa3, 0x72, 0xbe, 0x67, 0x17, 0x9c, 0xbe, 0x8f, 0xab, 0xa8, 0xbe,
  0x66, 0x8d, 0xfa, 0xbd, 0xd6, 0x3c, 0xa5, 0xbc, 0xc6, 0x4a, 0xf3, 0xbe,
  0xe2, 0xe2, 0x4f, 0x3d, 0xfd, 0x85, 0xf5, 0xbd, 0x37, 0x69, 0x52, 0x3e,
  0x66, 0x38, 0x06, 0x3e, 0x8b, 0xc9, 0xa3, 0xbe, 0x10, 0x40, 0x73, 0xbe,
  0x02, 0xaa, 0xe1, 0x3d, 0xf3, 0x8d, 0x3e, 0x3d, 0x06, 0x3a, 0x24, 0xbd,
  0x1d, 0x93, 0xe0, 0x3d, 0x88, 0xbd, 0x02, 0xbe, 0x17, 0x04, 0x22, 0xbe,
  0x4a, 0xb6, 0x47, 0xbe, 0xc4, 0xaa, 0x58, 0xbe, 0xbc, 0xdd, 0x0b, 0xbd,
  0xab, 0xd4, 0x36, 0xbe, 0x7a, 0x9f, 0x2a, 0x3e, 0x85, 0xa3, 0xa3, 0xbc,
  0x65, 0xdf, 0xa6, 0x3d, 0x04, 0x0c, 0xa0, 0x3d, 0xfd, 0x39, 0x7d, 0xbe,
  0x9d, 0xee, 0x06, 0xbf, 0x37, 0x18, 0xfc, 0xbc, 0xd3, 0xff, 0x83, 0xbe,
  0xac, 0x5d, 0xcf, 0xbb, 0x29, 0xb0, 0xd3, 0x3b, 0xa7, 0x41, 0xcb, 0x3d,
  0x74, 0xa8, 0x18, 0x3d, 0xda, 0xd8, 0xff, 0x3d, 0x5a, 0xbc, 0x66, 0xbe,
  0x57, 0x6a, 0x66, 0x3d, 0x01, 0x58, 0x25, 0x3d, 0x69, 0x4d, 0xa9, 0x3e,
  0x08, 0x91, 0x5e, 0x3e, 0xd0, 0xe3, 0x94, 0x3d, 0x82, 0xa7, 0x44, 0xbe,
  0xd8, 0x94, 0x93, 0xbe, 0xa0, 0x5f, 0xb4, 0xbe, 0x44, 0x55, 0x87, 0x3e,
  0x89, 0x88, 0x9d, 0xbe, 0x34, 0x9c, 0xe6, 0xbd, 0xd3, 0x3d, 0xb9, 0x3d,
  0x61, 0x6e, 0x12, 0xbe, 0x88, 0xd0, 0x21, 0x3e, 0xf0, 0x7d, 0xf8, 0x3b,
  0xd7, 0xb3, 0x04, 0x3e, 0x82, 0x68, 0x43, 0x3e, 0x0e, 0x94, 0xc8, 0x3e,
  0xab, 0x62, 0x91, 0xbe, 0x54, 0x9b, 0x96, 0x3e, 0x10, 0x16, 0x3a, 0x3d,
  0x0a, 0x22, 0x0a, 0x3e, 0x88, 0x2c, 0x60, 0x3d, 0xce, 0xdd, 0x82, 0x3d,
  0x2e, 0x06, 0x8f, 0x3c, 0x3e, 0xf5, 0x23, 0xbe, 0x3a, 0xb4, 0x9f, 0x3d,
  0xa5, 0x13, 0x68, 0xbd, 0x3b, 0xa9, 0x85, 0x3d, 0x0a, 0xd2, 0x4b, 0xbe,
  0x66, 0x1d, 0x34, 0x3d, 0x8e, 0x05, 0x00, 0xbe, 0x6e, 0x0e, 0xf5, 0xbd,
  0xb7, 0xb2, 0xb6, 0xbe, 0x27, 0x64, 0xb0, 0xbc, 0x95, 0x04, 0x16, 0x3e,
  0x30, 0x81, 0xd5, 0xbb, 0x8c, 0xf7, 0x87, 0xbd, 0x3b, 0x51, 0xf3, 0x3d,
  0x54, 0x79, 0xd1, 0xbc, 0x21, 0x6f, 0x7b, 0xbd, 0x80, 0xe8, 0x9f, 0xbc,
  0x2f, 0xb2, 0xa8, 0xbd, 0x44, 0xe9, 0xe0, 0xbc, 0xb4, 0xa3, 0x52, 0xbe,
  0x6e, 0x0b, 0x8d, 0xbd, 0x59, 0xd4, 0xb4, 0x3e, 0xbd, 0x80, 0xb5, 0xbd,
  0x68, 0x03, 0x39, 0x3e, 0xde, 0x7a, 0x02, 0xbe, 0x75, 0x87, 0x27, 0x3d,
  0x9c, 0x9a, 0x38, 0xbd, 0x15, 0x89, 0x69, 0xbe, 0xe0, 0xda, 0xa3, 0xbd,
  0x45, 0x5f, 0x42, 0xbe, 0xa4, 0x02, 0xc7, 0xbd, 0xdc, 0x12, 0x31, 0x3c,
  0x9d, 0x1b, 0xfa, 0x3d, 0x73, 0xfb, 0x0d, 0x3c, 0x22, 0x1f, 0x65, 0xbe,
  0x93, 0x1f, 0x3d, 0xbe, 0x22, 0x89, 0x47, 0xbe, 0x98, 0x71, 0x91, 0x3e,
  0x7c, 0xcb, 0x8e, 0xbd, 0xb4, 0x87, 0xaf, 0x3e, 0xb6, 0x7f, 0x4c, 0xbe,
  0x76, 0xe1, 0x83, 0x3e, 0x48, 0x63, 0x3d, 0x3e, 0x04, 0x7c, 0x1a, 0x3d,
  0x76, 0x68, 0xd1, 0x3e, 0x73, 0x19, 0x89, 0xbd, 0x01, 0x0b, 0x13, 0x3e,
  0x16, 0xf2, 0xa1, 0x3d, 0x73, 0x7e, 0x22, 0x3e, 0x77, 0xee, 0xc6, 0x3c,
  0x44, 0x1d, 0x74, 0x3d, 0xb0, 0x7a, 0x52, 0x3d, 0x78, 0x81, 0x44, 0x3e,
  0x89, 0x3c, 0x2c, 0x3d, 0xf9, 0xc3, 0xc4, 0xbe, 0x82, 0x17, 0xe6, 0x3e,
  0x0c, 0xfc, 0x99, 0x3d, 0x67, 0xce, 0x99, 0x3e, 0xb4, 0x73, 0x1e, 0x3f,
  0xe7, 0x44, 0x44, 0x3e, 0xa3, 0x8b, 0x03, 0x3e, 0xe1, 0x6b, 0xe3, 0xbd,
  0xb7, 0xfd, 0x3b, 0x3e, 0x8c, 0x38, 0x17, 0x3d, 0xb0, 0xc6, 0x94, 0x3d,
  0xac, 0x87, 0x03, 0x3d, 0x85, 0xf5, 0x64, 0x3e, 0x80, 0x30, 0xae, 0xbd,
  0x25, 0x6b, 0x0d, 0xbe, 0x8e, 0xfd, 0x1a, 0x3e, 0xf7, 0x7b, 0xb1, 0xbe,
  0x60, 0xc2, 0x83, 0x3e, 0xff, 0x08, 0x7d, 0x3c, 0xa7, 0xa2, 0x87, 0x3d,
  0x60, 0xe1, 0x6e, 0x3e, 0xbd, 0x11, 0xe8, 0x3d, 0xba, 0xd3, 0xe8, 0x3d,
  0xeb, 0xe9, 0xa9, 0x3e, 0x6d, 0x53, 0x7c, 0x3d, 0x3c, 0xef, 0x5d, 0xbe,
  0x61, 0x4b, 0x5d, 0x3c, 0xc2, 0x63, 0xdf, 0x3d, 0x7a, 0x7c, 0x15, 0x3e,
  0xf4, 0xff, 0xdf, 0xbd, 0xf6, 0x13, 0xd9, 0xbd, 0xc1, 0x01, 0xa0, 0x3c,
  0x1a, 0xfc, 0xa9, 0xbe, 0xef, 0x0f, 0x8b, 0x3e, 0xc6, 0x66, 0x35, 0xbd,
  0x71, 0x8e, 0x8f, 0x3e, 0xcd, 0x0d, 0x6d, 0x3e, 0xcc, 0x1e, 0xa1, 0xbd,
  0x21, 0xd8, 0x82, 0x3e, 0x15, 0x74, 0x10, 0x3e, 0x9f, 0xcc, 0x66, 0x3a,
  0x03, 0xe7, 0xfc, 0x3d, 0x59, 0xfe, 0x62, 0x3e, 0xbe, 0x45, 0xb5, 0x3b,
  0x59, 0xea, 0x48, 0xbe, 0xc6, 0x2a, 0xcb, 0x3d, 0xed, 0x67, 0x94, 0xbd,
  0x63, 0x1a, 0x8b, 0xbd, 0xf0, 0x8e, 0x38, 0xbe, 0x78, 0x50, 0x4d, 0x3e,
  0xdb, 0xa3, 0x2f, 0xbe, 0x2f, 0x9f, 0x7f, 0x3d, 0x69, 0x35, 0x90, 0xbc,
  0xbc, 0xb8, 0x46, 0xbe, 0xe4, 0xdb, 0x22, 0x3f, 0x42, 0xa8, 0xca, 0xbc,
  0xcc, 0x80, 0x56, 0x3e, 0x7e, 0x5e, 0x67, 0xbe, 0x6d, 0x08, 0xf5, 0xbc,
  0x53, 0x43, 0x85, 0xbe, 0x50, 0xe4, 0x25, 0x3e, 0x31, 0x58, 0xb1, 0xbe,
  0x9c, 0xf7, 0x14, 0xbe, 0xb2, 0xf3, 0x1f, 0xbe, 0x2e, 0xa9, 0x82, 0xbe,
  0xed, 0x61, 0x13, 0x3e, 0x77, 0x46, 0xf8, 0x3d, 0x5f, 0x0e, 0x8a, 0x3d,
  0x39, 0xe6, 0x53, 0x3d, 0xa2, 0x15, 0xbb, 0x3d, 0x79, 0xf6, 0xe7, 0xba,
  0x90, 0x22, 0xa5, 0x3b, 0xab, 0xbf, 0x28, 0x3d, 0x01, 0xd0, 0x83, 0x3d,
  0xb0, 0x65, 0x9e, 0xbe, 0x4a, 0x82, 0x87, 0x3e, 0x1b, 0x25, 0x6f, 0xbc,
  0xf2, 0x00, 0xd1, 0xbe, 0xc6, 0x61, 0x82, 0xbc, 0x4d, 0xbf, 0x41, 0x3e,
  0xdb, 0x7d, 0xaf, 0x3c, 0xf3, 0x71, 0xcc, 0xbd, 0x67, 0x15, 0x95, 0x3c,
  0x74, 0xc4, 0x75, 0xbe, 0x48, 0x80, 0x80, 0xbd, 0x97, 0x83, 0x5d, 0x3e,
  0xd7, 0x5d, 0x81, 0x3d, 0x63, 0xf3, 0x83, 0xbe, 0xdf, 0x67, 0x37, 0xbe,
  0xbe, 0x9e, 0x71, 0xbe, 0x44, 0x59, 0x23, 0xbe, 0xf8, 0x3a, 0x7c, 0x3e,
  0x3f, 0x84, 0x99, 0xbe, 0x89, 0x3d, 0xd1, 0xbe, 0xd4, 0x90, 0xff, 0x3d,
  0x5d, 0x8d, 0x37, 0x3d, 0x40, 0xc4, 0x9a, 0x3d, 0x58, 0x17, 0x35, 0x3e,
  0xda, 0x2e, 0x1c, 0xbe, 0x7b, 0x2a, 0x39, 0x3e, 0xcf, 0x72, 0x36, 0x3c,
  0xa4, 0xd5, 0xf7, 0x3c, 0xfd, 0xa0, 0x28, 0x3e, 0x95, 0xc8, 0x37, 0xbe,
  0xd6, 0x1f, 0x2e, 0x3d, 0x5f, 0x71, 0x00, 0xbf, 0x30, 0x83, 0xcb, 0xbe,
  0x75, 0x51, 0x49, 0xba, 0xf3, 0xad, 0x84, 0x3e, 0x94, 0x0b, 0xa0, 0xbd,
  0xcd, 0x84, 0x55, 0x3d, 0x6e, 0xcd, 0x24, 0x3d, 0xc5, 0x0c, 0xb8, 0x3d,
  0xf2, 0xa8, 0xd3, 0x3e, 0x3f, 0xe4, 0x81, 0xba, 0xd2, 0x9d, 0xdf, 0xbd,
  0x87, 0xf9, 0xa9, 0xbd, 0x85, 0x29, 0x36, 0x3e, 0x8b, 0xd0, 0x14, 0x3e,
  0xc6, 0xc3, 0x95, 0xbd, 0xec, 0x6c, 0x24, 0xbd, 0x66, 0x27, 0x0c, 0xbf,
  0x1d, 0xeb, 0x6d, 0xbe, 0xa1, 0xca, 0xbd, 0x3e, 0xeb, 0x58, 0x89, 0x3d,
  0x6c, 0x58, 0x08, 0xbe, 0x30, 0x69, 0xad, 0x3c, 0x19, 0x61, 0x21, 0xbd,
  0xd2, 0xf8, 0xb5, 0x3d, 0xb3, 0x83, 0x47, 0x3e, 0x8c, 0xaf, 0x4a, 0x3e,
  0xe6, 0x41, 0x65, 0x3c, 0xc1, 0xfa, 0x51, 0xbc, 0xe2, 0xc3, 0x87, 0x3c,
  0x5f, 0xf6, 0xa0, 0x3d, 0xd5, 0x06, 0xd2, 0xbd, 0x7c, 0xd4, 0xd1, 0xbd,
  0x81, 0x87, 0xf4, 0xbe, 0xa8, 0xc1, 0xc8, 0xbd, 0x6d, 0x5f, 0x95, 0x3e,
  0x1e, 0x73, 0x6d, 0xbe, 0x40, 0x9b, 0x1f, 0xbe, 0x0a, 0x71, 0x66, 0x3d,
  0xff, 0x66, 0x37, 0xbd, 0x03, 0x8e, 0x79, 0x3d, 0x80, 0x0d, 0xfd, 0x3e,
  0xea, 0x6d, 0xaf, 0xbd, 0xb9, 0x31, 0xd9, 0x3c, 0xc7, 0x4e, 0x93, 0xbc,
  0x31, 0x43, 0x5f, 0x3d, 0x7c, 0x28, 0x94, 0x3b, 0xd4, 0xc5, 0x14, 0xbd,
  0xf5, 0x6b, 0xf0, 0xbd, 0x4f, 0x2b, 0xde, 0xbe, 0x7c, 0xe3, 0x9d, 0xbe,
  0xbe, 0xaa, 0x28, 0x3e, 0x8e, 0x83, 0xe9, 0xbd, 0x03, 0x79, 0xfd, 0xbd,
  0x66, 0x1a, 0xb9, 0x3d, 0x35, 0x59, 0x2f, 0xbe, 0x38, 0x72, 0x1b, 0x3d,
  0x8c, 0x6a, 0x77, 0x3e, 0x54, 0x16, 0x01, 0x3d, 0xf6, 0x11, 0x58, 0xbd,
  0x68, 0xea, 0x01, 0xbc, 0x70, 0xec, 0x6c, 0x3d, 0x60, 0x29, 0x02, 0x3d,
  0x27, 0x86, 0x6c, 0xbe, 0x65, 0x03, 0x2f, 0xbe, 0xd2, 0x4b, 0x17, 0xbf,
  0xb2, 0xa2, 0x1f, 0xbe, 0xfa, 0x2b, 0x5b, 0x3e, 0xaf, 0x7c, 0x8f, 0xbe,
  0x41, 0xbe, 0x99, 0xbd, 0x3e, 0x0b, 0xa5, 0x3d, 0xe8, 0xec, 0xa7, 0xbd,
  0x5e, 0x81, 0x1b, 0xbd, 0x62, 0x8e, 0xd3, 0x3d, 0x89, 0x54, 0xb6, 0x3d,
  0x88, 0x35, 0xe2, 0x3b, 0xc1, 0xbc, 0x9d, 0xbc, 0x99, 0x7d, 0x0c, 0x3d,
  0xee, 0x47, 0x32, 0xbb, 0x23, 0x75, 0x5c, 0x3c, 0x7c, 0xdb, 0xf7, 0xbd,
  0x63, 0x9c, 0x12, 0xbf, 0x14, 0x2d, 0x9f, 0xbd, 0xd0, 0x3f, 0x80, 0x3f,
  0x72, 0xc0, 0x72, 0x3e, 0xda, 0x59, 0x72, 0x3e, 0x13, 0x1a, 0xd5, 0xbd,
  0xb4, 0x93, 0x60, 0xbd, 0xdc, 0x11, 0xda, 0xbd, 0x06, 0x85, 0x19, 0xbe,
  0xa9, 0x91, 0x19, 0xbe, 0xbe, 0x3b, 0x83, 0xbd, 0x95, 0x7b, 0x23, 0xbe,
  0xe6, 0x2b, 0x54, 0x3e, 0xc2, 0xd6, 0x73, 0xbd, 0xea, 0x87, 0x7e, 0x3d,
  0x22, 0x23, 0xca, 0x3c, 0xce, 0xb9, 0x41, 0x3f, 0x56, 0x04, 0xcd, 0xbd,
  0xed, 0x1e, 0xb6, 0x3e, 0x42, 0x2d, 0xdb, 0x3e, 0xc9, 0x96, 0x0c, 0xbe,
  0x14, 0x1c, 0x12, 0xbd, 0x06, 0x53, 0x11, 0x3e, 0x03, 0xb5, 0x68, 0xbd,
  0x42, 0xf1, 0xed, 0x3b, 0xb2, 0xc6, 0x68, 0xbd, 0xaf, 0xe9, 0x10, 0x3d,
  0x5a, 0xaa, 0xef, 0xbd, 0x9b, 0xce, 0x8f, 0xbd, 0xd7, 0x1e, 0x0d, 0xbe,
  0x22, 0xcd, 0xe6, 0x3d, 0x21, 0x78, 0x7d, 0xbe, 0xb0, 0xe0, 0xaa, 0x3f,
  0x6f, 0x41, 0x35, 0xbe, 0x6e, 0x43, 0x0d, 0x3f, 0x57, 0x12, 0x04, 0x3f,
  0x16, 0xfc, 0x33, 0xbd, 0xfb, 0x00, 0x5c, 0xbc, 0x69, 0x10, 0x6f, 0xbd,
  0x82, 0x42, 0x71, 0xbe, 0x20, 0x85, 0xa1, 0x3e, 0x46, 0xb6, 0xcd, 0xbd,
  0xc7, 0x2f, 0x55, 0xbe, 0x57, 0xd8, 0x2b, 0xbe, 0xb6, 0xaf, 0xc2, 0xbd,
  0x70, 0xfb, 0x4c, 0x3c, 0x6b, 0x80, 0x33, 0x3d, 0x53, 0x6a, 0xca, 0xbe,
  0x17, 0x8c, 0x52, 0x3f, 0xa5, 0xc8, 0xa9, 0xbc, 0x65, 0x4f, 0xa4, 0x3f,
  0x10, 0x95, 0x12, 0x3f, 0x4d, 0x52, 0xb5, 0xbc, 0x04, 0x34, 0x96, 0xbd,
  0x1c, 0xdb, 0xae, 0x3d, 0x30, 0x50, 0xdd, 0xbd, 0x7a, 0xa0, 0xb7, 0xbe,
  0x18, 0x08, 0x21, 0x3e, 0x85, 0xb8, 0x37, 0xbe, 0x72, 0x6a, 0xb1, 0xbd,
  0xcf, 0x82, 0x0a, 0x3e, 0x84, 0x85, 0xc6, 0xbd, 0x01, 0x67, 0x0c, 0xbe,
  0x9f, 0xf1, 0x03, 0xbe, 0xc9, 0xf2, 0xf2, 0x3e, 0x65, 0xfe, 0x3f, 0xbe,
  0xc0, 0x07, 0xeb, 0x3e, 0x9c, 0x44, 0x1d, 0x3f, 0x64, 0xd5, 0x38, 0xbe,
  0xcc, 0xb3, 0x4b, 0x3d, 0x98, 0xf9, 0x9e, 0xbd, 0x4e, 0xcb, 0x8c, 0xbe,
  0x13, 0xf1, 0xe0, 0x3b, 0xa8, 0xb7, 0x63, 0xbe, 0xfd, 0xdc, 0xa2, 0xbe,
  0x2e, 0xc3, 0xce, 0xbd, 0x4c, 0x4c, 0x3b, 0xbe, 0x58, 0xc3, 0xd2, 0xbd,
  0xc2, 0x3d, 0x83, 0xbe, 0xec, 0x99, 0x02, 0xbd, 0xdc, 0x9e, 0x28, 0x3f,
  0x92, 0x9b, 0x36, 0xbe, 0x98, 0x28, 0x16, 0x3f, 0xb1, 0xf1, 0x0d, 0x3f,
  0xcd, 0x62, 0x6f, 0xbe, 0x0f, 0xa2, 0xf3, 0x3d, 0xb3, 0x8d, 0x87, 0xbd,
  0x44, 0x48, 0xba, 0xbe, 0x32, 0x2a, 0x0c, 0x3d, 0x1a, 0x68, 0x50, 0xbe,
  0x78, 0xe9, 0xb0, 0xbe, 0xf4, 0xfd, 0x99, 0x3d, 0xb2, 0x57, 0x9c, 0x3d,
  0x89, 0x47, 0xfb, 0x3d, 0xb0, 0xd1, 0xd9, 0x3d, 0x1f, 0x3f, 0x94, 0xbe,
  0x9a, 0x7f, 0x3e, 0x3f, 0x6c, 0x7c, 0xb6, 0xbd, 0xec, 0x1d, 0xa8, 0x3d,
  0x2f, 0xb3, 0x8f, 0x3e, 0x23, 0x1c, 0xac, 0xbe, 0xd5, 0x5e, 0x55, 0xbe,
  0x5e, 0x16, 0xfb, 0xbd, 0xa0, 0xd6, 0xaa, 0xbe, 0xe8, 0x93, 0xc0, 0x3c,
  0x0b, 0xaf, 0xce, 0xbd, 0xff, 0x3f, 0xa3, 0xbd, 0x5b, 0x73, 0x22, 0xbe,
  0x2a, 0xf0, 0x62, 0x3d, 0x21, 0x9e, 0xd9, 0x3c, 0xde, 0x7e, 0x6b, 0xbe,
  0xca, 0xb2, 0x81, 0xbe, 0xfc, 0xc1, 0x9a, 0x3f, 0xfa, 0xa6, 0xc6, 0xbe,
  0xbd, 0x68, 0xa8, 0xbc, 0x91, 0xd6, 0x0c, 0xbc, 0xf2, 0xb9, 0x0d, 0xbb,
  0x82, 0xa9, 0xb3, 0xbd, 0x34, 0x37, 0xc3, 0xbe, 0xb2, 0xa8, 0x47, 0xbe,
  0x88, 0xf3, 0x11, 0xbf, 0xae, 0x16, 0x83, 0xbd, 0x00, 0x51, 0x09, 0xbf,
  0x0a, 0x71, 0x9f, 0xbe, 0xd4, 0x6a, 0x1b, 0x3e, 0x74, 0xb7, 0x95, 0xbe,
  0x71, 0xa2, 0x7b, 0xbe, 0x36, 0xba, 0x4d, 0xbf, 0x62, 0x4c, 0xaa, 0xbd,
  0xbc, 0x95, 0xed, 0xbe, 0x0b, 0x71, 0x40, 0xbe, 0x0e, 0x5c, 0x8f, 0xbe,
  0x43, 0xef, 0x4b, 0xbe, 0x27, 0x48, 0x91, 0x3d, 0xc6, 0x57, 0x08, 0xbf,
  0x32, 0x99, 0x1f, 0xbe, 0xdc, 0x1a, 0x7c, 0xbe, 0xd5, 0x40, 0x12, 0xbe,
  0x39, 0x2c, 0x4e, 0xbe, 0x32, 0x17, 0x17, 0xbe, 0x11, 0xd2, 0x51, 0x3c,
  0xae, 0x33, 0x28, 0x3b, 0xfc, 0xad, 0x0b, 0x3c, 0xdf, 0x8c, 0xf4, 0xbe,
  0xb9, 0x17, 0xb0, 0xbc, 0xed, 0xb5, 0x68, 0xbe, 0xec, 0x9a, 0x5f, 0xbd,
  0xbc, 0xd5, 0xb3, 0xbe, 0x84, 0xc9, 0x2c, 0xbe, 0x32, 0x80, 0x1c, 0x3d,
  0x47, 0x5d, 0x0b, 0xbf, 0xe5, 0x47, 0x08, 0xbe, 0x79, 0x94, 0xb2, 0xbe,
  0x86, 0xa6, 0x21, 0xbe, 0x33, 0x5e, 0x46, 0xbe, 0x47, 0x1f, 0x2f, 0xbe,
  0x65, 0x93, 0xf5, 0xbd, 0x5c, 0x0b, 0x15, 0xbc, 0xa2, 0xf2, 0x4c, 0xbc,
  0x7c, 0x97, 0x23, 0xbe, 0xb9, 0xd9, 0x63, 0x3d, 0x67, 0xd5, 0x08, 0xbe,
  0x8f, 0xf1, 0x51, 0x3d, 0x5f, 0x53, 0x7b, 0xbd, 0x8e, 0x03, 0x07, 0xbb,
  0xd3, 0xbb, 0xf9, 0xbd, 0x6c, 0x41, 0x01, 0xbf, 0x7e, 0xbd, 0xf7, 0xbd,
  0x6f, 0x06, 0x39, 0xbe, 0x85, 0x36, 0xcd, 0xbd, 0x9a, 0x1e, 0x01, 0xbe,
  0x19, 0x5b, 0xcf, 0xbe, 0x16, 0xdd, 0x15, 0xbe, 0xe9, 0xd1, 0x32, 0xbe,
  0x20, 0xf7, 0x97, 0xbd, 0x12, 0x56, 0x05, 0xbf, 0x2f, 0xdc, 0xc9, 0x3c,
  0xdf, 0xdc, 0x4c, 0xbe, 0x1b, 0xd7, 0x0b, 0xbc, 0x39, 0x27, 0xb3, 0x3d,
  0xe6, 0xee, 0xb1, 0xbc, 0x3b, 0xde, 0xb7, 0xbc, 0x8b, 0x68, 0xb6, 0x3c,
  0x22, 0x9c, 0xae, 0xbd, 0xe4, 0x86, 0xd0, 0x3d, 0x53, 0x3c, 0x47, 0x3e,
  0xe9, 0x7c, 0x0c, 0xbe, 0xf1, 0x94, 0x00, 0x3f, 0xbf, 0x8b, 0xfd, 0xbd,
  0xc8, 0xf6, 0x26, 0xbe, 0x94, 0x69, 0x8c, 0xbc, 0x91, 0xf2, 0x03, 0x3e,
  0x3e, 0x6d, 0x48, 0x3e, 0x8e, 0x2b, 0x76, 0xbd, 0x90, 0xda, 0x4c, 0xbe,
  0x01, 0xe7, 0xc3, 0xbd, 0x41, 0xb1, 0x12, 0xbe, 0x95, 0x7c, 0x96, 0x3d,
  0xad, 0x65, 0x09, 0x3d, 0x3e, 0x25, 0x7e, 0x3d, 0x9b, 0x71, 0x70, 0x3e,
  0xf6, 0x04, 0x27, 0x3e, 0xfd, 0x1e, 0x65, 0xbe, 0x99, 0x61, 0xf7, 0x3d,
  0xcd, 0x78, 0x97, 0xbd, 0x73, 0x86, 0x2d, 0xbe, 0xe3, 0x44, 0xc7, 0x3d,
  0xee, 0x4b, 0x29, 0xbd, 0x0f, 0x19, 0x16, 0xbd, 0xaf, 0x3c, 0x65, 0xbe,
  0x9b, 0x9d, 0x59, 0x3e, 0x9c, 0xbd, 0x16, 0xbd, 0x98, 0x9e, 0x37, 0xbd,
  0x5f, 0xd8, 0x13, 0x3d, 0x7b, 0x8d, 0x6e, 0x3e, 0x55, 0x9b, 0x00, 0x3e,
  0xc1, 0x8c, 0xc4, 0x3e, 0xb8, 0x43, 0x13, 0x3e, 0xbe, 0x06, 0xdb, 0xbd,
  0xb8, 0xc8, 0x97, 0x3e, 0x25, 0xc8, 0xbc, 0x3d, 0x2d, 0x5a, 0x26, 0x3d,
  0xa2, 0x83, 0xa1, 0x3d, 0x99, 0x82, 0x5c, 0x3c, 0x54, 0xba, 0x12, 0x3e,
  0xcb, 0x04, 0xc9, 0xbd, 0xf8, 0x5d, 0x22, 0x3e, 0xe0, 0x7b, 0xc1, 0x3e,
  0xdf, 0x8f, 0x18, 0x3e, 0xe6, 0x2a, 0x85, 0xbe, 0xf3, 0xe6, 0x2a, 0xbe,
  0xca, 0xf5, 0x6e, 0xbd, 0x39, 0x30, 0xa4, 0xbe, 0x22, 0x98, 0x72, 0xbe,
  0xa3, 0xb1, 0xe5, 0x3d, 0x55, 0x42, 0xcf, 0xbd, 0x58, 0x12, 0xc0, 0xbd,
  0xfa, 0x2a, 0x10, 0xbd, 0x12, 0x59, 0x14, 0x3d, 0xd8, 0x87, 0x16, 0x3c,
  0xac, 0xdb, 0xdc, 0x3d, 0x43, 0x1a, 0x31, 0x3e, 0x97, 0xf5, 0x6e, 0xbd,
  0x88, 0xda, 0xad, 0x3e, 0x70, 0x52, 0xf6, 0x3d, 0xbd, 0x21, 0x3e, 0xbe,
  0x02, 0x34, 0x96, 0xbe, 0xdf, 0x50, 0x15, 0xbd, 0x6a, 0x7d, 0x96, 0xbe,
  0xbc, 0x3c, 0x8d, 0x3d, 0x8c, 0x3c, 0x91, 0xbe, 0x73, 0x74, 0x13, 0x3e,
  0xf5, 0x29, 0x2e, 0xbe, 0x06, 0x07, 0x7d, 0xbe, 0x41, 0x09, 0x81, 0x3d,
  0xf0, 0xe5, 0x8f, 0xbe, 0x9a, 0xda, 0x8c, 0xbe, 0xa8, 0xb5, 0x93, 0x3e,
  0x21, 0xb7, 0x9e, 0xbe, 0x6a, 0xe4, 0xa8, 0x3e, 0x4a, 0xa0, 0xe9, 0x3e,
  0xe7, 0x5c, 0x81, 0xbc, 0x94, 0x70, 0x77, 0x3d, 0x37, 0xc9, 0xc1, 0xbd,
  0x27, 0x13, 0x08, 0xbf, 0xdf, 0x4c, 0xa2, 0x3e, 0xfd, 0xc3, 0x99, 0xbe,
  0xf0, 0x56, 0x33, 0xbd, 0x5d, 0x0e, 0x0c, 0xbe, 0x8d, 0xb1, 0x84, 0xbe,
  0xf0, 0x98, 0x72, 0x3e, 0xef, 0x43, 0x1a, 0x3d, 0x23, 0x57, 0x42, 0x3e,
  0x1f, 0x14, 0xf2, 0xbd, 0xb9, 0x3b, 0xae, 0x3d, 0x6f, 0x80, 0x1d, 0x3e,
  0x8d, 0x69, 0x9e, 0xbd, 0xac, 0x5d, 0x2d, 0xbe, 0x6f, 0x59, 0xfa, 0x3d,
  0xb1, 0x5f, 0xe3, 0x3c, 0x79, 0xc4, 0x3a, 0x3e, 0xd5, 0xe1, 0x94, 0x3e,
  0x63, 0xc2, 0xbd, 0xbd, 0x49, 0x17, 0x6e, 0x3e, 0x5b, 0x25, 0xe2, 0xb9,
  0x4a, 0xf3, 0x7f, 0xbe, 0xd3, 0x6d, 0x97, 0x3e, 0x92, 0xce, 0x41, 0x3e,
  0x87, 0x37, 0x1f, 0xbe, 0x90, 0x9f, 0x4b, 0x3d, 0x06, 0xcd, 0x80, 0xbd,
  0xe5, 0x3f, 0xc0, 0x3e, 0x11, 0x8b, 0x20, 0x3e, 0x80, 0x33, 0x76, 0xbe,
  0xc6, 0x5e, 0xaf, 0x3d, 0x4d, 0x4b, 0x34, 0x3d, 0x42, 0x41, 0x1e, 0xbe,
  0xfe, 0x82, 0x2a, 0xbe, 0x33, 0x27, 0x09, 0xbe, 0x30, 0x56, 0x1a, 0xbe,
  0x99, 0xfd, 0x16, 0xbe, 0xc2, 0xca, 0x0e, 0xbc, 0xea, 0xc6, 0xa9, 0x3e,
  0x1e, 0x9d, 0x3b, 0x3e, 0xb7, 0x23, 0x0b, 0xbd, 0xbf, 0x09, 0x91, 0x3e,
  0xdc, 0x90, 0x15, 0xbd, 0xa3, 0x91, 0xb4, 0x3e, 0xa6, 0xda, 0x0f, 0x3e,
  0xc4, 0xc9, 0x59, 0xbe, 0x08, 0x3b, 0xa4, 0x3d, 0xec, 0xa7, 0x96, 0xbd,
  0x2c, 0xc0, 0x12, 0xbe, 0x94, 0x4c, 0x7b, 0xbe, 0xef, 0xe1, 0xa1, 0x3e,
  0x88, 0x69, 0x3d, 0xbe, 0xa7, 0x63, 0x15, 0xbe, 0x11, 0x4c, 0xa9, 0xbe,
  0x7e, 0x26, 0xf4, 0xbc, 0xad, 0x57, 0x9f, 0x3d, 0x59, 0x34, 0x95, 0xbd,
  0x02, 0xc0, 0x49, 0x3e, 0xf5, 0x15, 0xfa, 0xbd, 0x91, 0x21, 0x89, 0x3e,
  0xde, 0xec, 0x0c, 0xbc, 0x46, 0x3c, 0x24, 0xbe, 0xef, 0x98, 0x06, 0xbe,
  0xd6, 0x89, 0x1d, 0xbb, 0x0e, 0x33, 0x96, 0xbe, 0x7d, 0xe4, 0xac, 0x3c,
  0x36, 0xd6, 0x3c, 0xbd, 0x2d, 0x10, 0x4c, 0xbd, 0x92, 0xaa, 0x1d, 0xbc,
  0xe3, 0x55, 0xd7, 0xbc, 0x27, 0x87, 0x20, 0xbd, 0x18, 0x36, 0xcf, 0x3d,
  0xc4, 0xd3, 0x84, 0x3c, 0xde, 0x48, 0xa8, 0x3d, 0xc3, 0x2d, 0x55, 0xbe,
  0x22, 0x19, 0xc1, 0x3d, 0x35, 0x1a, 0x4c, 0xbe, 0xd8, 0x1b, 0x1c, 0xbd,
  0x56, 0x45, 0x48, 0x3d, 0x5b, 0xd1, 0x27, 0xbd, 0x54, 0x50, 0x9c, 0x3d,
  0x8a, 0xea, 0x11, 0xbe, 0xfc, 0xd4, 0x58, 0xbd, 0xdd, 0x30, 0x99, 0xbc,
  0x8b, 0xce, 0x47, 0xbc, 0xbf, 0x81, 0x04, 0x3e, 0xb0, 0x24, 0x4d, 0xbe,
  0xae, 0xd6, 0xc9, 0xbd, 0x8e, 0x09, 0x1a, 0xbe, 0x8d, 0x39, 0x9c, 0xbd,
  0xc5, 0x50, 0x5f, 0xbe, 0x11, 0x61, 0x40, 0xbe, 0x01, 0x95, 0x44, 0xbe,
  0xda, 0x31, 0x5a, 0x3d, 0xc0, 0xe7, 0x92, 0xbe, 0x65, 0x71, 0xdc, 0xbd,
  0xf8, 0x50, 0x30, 0xbe, 0x41, 0xc8, 0xd5, 0xbd, 0xb4, 0x71, 0xac, 0xbd,
  0x29, 0xd9, 0x16, 0xbe, 0x03, 0x29, 0x0a, 0xbe, 0x3b, 0x98, 0xde, 0x3d,
  0xd3, 0xb1, 0x0d, 0xbe, 0x7d, 0x02, 0x26, 0xbe, 0xf5, 0x47, 0x27, 0xbe,
  0xce, 0x72, 0x9f, 0x3d, 0x13, 0x31, 0x20, 0x3e, 0x41, 0x12, 0x30, 0xbe,
  0xbb, 0xbc, 0x23, 0xbe, 0xac, 0xa8, 0x9f, 0xbc, 0xad, 0xaa, 0xf7, 0xbb,
  0x31, 0xac, 0x96, 0xbe, 0x15, 0x34, 0x2b, 0xbd, 0x54, 0x4b, 0xb4, 0xba,
  0x88, 0x30, 0x19, 0x3d, 0xb9, 0x32, 0x9d, 0x3d, 0xa8, 0xb1, 0x18, 0x3e,
  0x62, 0xdf, 0x93, 0xbc, 0xc7, 0xb7, 0x5a, 0xbe, 0x80, 0x89, 0x45, 0xbd,
  0x00, 0x51, 0x00, 0x3d, 0x71, 0x89, 0xfa, 0x3d, 0x98, 0x6e, 0x1e, 0xbb,
  0x3c, 0x1d, 0x2c, 0x3e, 0x73, 0x8a, 0xcf, 0xbd, 0xbc, 0x17, 0xda, 0xbc,
  0x47, 0x3d, 0x21, 0xbe, 0x33, 0x47, 0x74, 0xbe, 0xa8, 0xff, 0x0d, 0xbe,
  0x85, 0x59, 0x20, 0xbe, 0xc4, 0x58, 0x1f, 0xbe, 0xa6, 0x69, 0x33, 0xbe,
  0xe7, 0x0d, 0x44, 0x3d, 0x1f, 0x22, 0x3c, 0xbe, 0x9c, 0xfb, 0xbb, 0x3d,
  0x84, 0x61, 0xf0, 0xb8, 0x94, 0x29, 0x2c, 0xbe, 0x39, 0xb2, 0x8d, 0xbd,
  0x68, 0x7f, 0xaf, 0x3d, 0x01, 0x12, 0x02, 0xbe, 0x0e, 0x5c, 0xd0, 0xbd,
  0x3f, 0x3e, 0xa4, 0x3d, 0x24, 0x91, 0x36, 0x3d, 0x39, 0x53, 0x49, 0xbe,
  0x66, 0x6c, 0x01, 0x3d, 0x7b, 0xb1, 0x02, 0xbe, 0xc2, 0x64, 0x4f, 0x3d,
  0xbb, 0xc0, 0x5b, 0xbd, 0xc5, 0xd5, 0x57, 0x3e, 0x23, 0x6c, 0x96, 0x3d,
  0xa9, 0x7c, 0xe2, 0xbc, 0x45, 0xdd, 0xeb, 0x3d, 0x4d, 0x64, 0x4a, 0x3e,
  0x47, 0x1f, 0xd3, 0x3d, 0x42, 0x14, 0x23, 0xbe, 0xb2, 0x10, 0xee, 0x3c,
  0xf2, 0x95, 0x2e, 0xbe, 0xc0, 0xaf, 0xd0, 0xbc, 0x3c, 0x9c, 0x91, 0xbc,
  0x6e, 0xa2, 0x27, 0x3c, 0xfb, 0xaf, 0x97, 0xbd, 0x95, 0xa3, 0x1c, 0xbe,
  0xd5, 0x10, 0x8a, 0xbc, 0x43, 0x86, 0x23, 0x3c, 0x3b, 0x6f, 0x24, 0x3e,
  0x98, 0xce, 0x68, 0xbe, 0xc7, 0x2b, 0xe0, 0xbc, 0xe6, 0x6e, 0x47, 0xbd,
  0xdb, 0xdf, 0x46, 0x3e, 0x44, 0xad, 0x6f, 0xbe, 0x9f, 0x24, 0x13, 0xbe,
  0x9a, 0xe6, 0xf5, 0xbd, 0x94, 0x35, 0x95, 0xbd, 0x4d, 0x22, 0x17, 0xbe,
  0x3b, 0x66, 0x2e, 0xbe, 0xf8, 0x2d, 0x9a, 0xbe, 0x18, 0x68, 0x14, 0xbe,
  0x85, 0x12, 0x92, 0x3d, 0xb3, 0xfe, 0x10, 0x3d, 0x0a, 0x9d, 0x78, 0xbe,
  0x70, 0xe8, 0xae, 0x3d, 0xca, 0xb3, 0x26, 0xbb, 0x74, 0x0a, 0xef, 0xbc,
  0xc0, 0x75, 0xb3, 0xbd, 0x80, 0x49, 0x77, 0x3d, 0xa2, 0xc0, 0x49, 0xbe,
  0x3d, 0xe8, 0x93, 0xbe, 0x66, 0xa8, 0x82, 0xbe, 0x3f, 0x6f, 0x09, 0xbf,
  0x2b, 0xee, 0xbc, 0xbe, 0xd7, 0x3e, 0x04, 0xbe, 0x94, 0x79, 0xf4, 0xbd,
  0xd6, 0x7d, 0x06, 0xbf, 0xc9, 0x53, 0x9c, 0xbe, 0xf3, 0x27, 0x6f, 0xbe,
  0x8f, 0x91, 0x26, 0xbe, 0xaf, 0x83, 0x8e, 0xbe, 0x6e, 0x59, 0x67, 0xbe,
  0x63, 0x95, 0xd3, 0xbe, 0x7c, 0x2f, 0x30, 0xbe, 0x4d, 0xc6, 0x89, 0xbe,
  0x24, 0x80, 0xc4, 0xbe, 0xaf, 0x29, 0x0f, 0xbe, 0xb2, 0x32, 0x95, 0xbe,
  0xe6, 0x61, 0xb7, 0xbe, 0x35, 0x28, 0x43, 0xbe, 0x9a, 0x5d, 0xd9, 0x3d,
  0x6b, 0xc8, 0x15, 0xbd, 0x8a, 0x63, 0x5e, 0x3e, 0x69, 0xfa, 0x99, 0xbe,
  0xf0, 0xb1, 0x26, 0x3d, 0x8d, 0x03, 0x03, 0x3e, 0x49, 0x90, 0x1b, 0xbc,
  0xc9, 0xac, 0xc5, 0xbd, 0x76, 0x0b, 0xed, 0x3c, 0x20, 0x44, 0x18, 0x3e,
  0xba, 0x04, 0xde, 0xbd, 0x3f, 0x1f, 0xc7, 0xbe, 0x04, 0x24, 0xf5, 0xbd,
  0x00, 0xd2, 0x35, 0x3c, 0xb4, 0x23, 0x1a, 0x3d, 0x1b, 0xc3, 0x22, 0xbe,
  0x7a, 0x7a, 0xbd, 0xbd, 0x41, 0x16, 0xbb, 0xbb, 0x7e, 0x29, 0x10, 0xbe,
  0x85, 0x51, 0x9a, 0xbd, 0x96, 0x2f, 0x79, 0x3d, 0xa7, 0x44, 0xaf, 0x3d,
  0xe2, 0x2a, 0x6e, 0xbe, 0x0b, 0xa0, 0x93, 0xbe, 0xa3, 0x4e, 0x29, 0x3e,
  0xec, 0x16, 0x93, 0x3d, 0x2e, 0x72, 0x64, 0xbd, 0xba, 0x3c, 0xc6, 0x3d,
  0x74, 0xb7, 0x01, 0x3e, 0xde, 0xc7, 0x0c, 0xbe, 0xe1, 0x5d, 0x6e, 0x3e,
  0x99, 0x59, 0xa1, 0xbd, 0xa7, 0x31, 0xcc, 0xbd, 0xfe, 0x1c, 0x0d, 0xbd,
  0x90, 0x97, 0x59, 0x3e, 0x0b, 0x62, 0xbe, 0xbd, 0xea, 0xaa, 0xb5, 0x3d,
  0x1c, 0x27, 0xed, 0x3c, 0x31, 0x19, 0x73, 0xbd, 0x87, 0xdf, 0x21, 0xbe,
  0x04, 0xf6, 0xdb, 0xbc, 0xc8, 0x6c, 0xd8, 0xbc, 0x43, 0xe7, 0x46, 0x3d,
  0x2f, 0x20, 0x7a, 0x3e, 0x45, 0xe1, 0xe4, 0x3d, 0xf1, 0xde, 0xa6, 0x3e,
  0x50, 0x33, 0x14, 0x3e, 0x48, 0xd7, 0xff, 0xbd, 0x00, 0xc8, 0x0b, 0xbe,
  0xea, 0x56, 0x76, 0xbd, 0x14, 0x0b, 0xe8, 0xbe, 0x8e, 0x1d, 0x8e, 0xbe,
  0x77, 0x55, 0xe5, 0x3b, 0x81, 0xbe, 0x48, 0xbe, 0x22, 0x88, 0x26, 0x3e,
  0x88, 0x8d, 0xfb, 0xbe, 0x97, 0xbf, 0xab, 0x3d, 0xf0, 0x5b, 0xd4, 0xbd,
  0x4d, 0x4f, 0x8d, 0xbe, 0x5b, 0x11, 0x69, 0x3e, 0x49, 0x82, 0xf9, 0xbc,
  0x57, 0xb7, 0x01, 0x3e, 0x0c, 0x36, 0x2a, 0x3e, 0x2e, 0xee, 0x8d, 0xbe,
  0x89, 0x77, 0x85, 0x3d, 0x48, 0xb9, 0xcf, 0xbc, 0x2b, 0x02, 0x45, 0xbf,
  0xbb, 0x84, 0xa4, 0xbd, 0x9d, 0x14, 0x45, 0x3e, 0x54, 0x97, 0x91, 0xbe,
  0x0b, 0xb2, 0x48, 0xbd, 0x8c, 0xfb, 0x70, 0xbe, 0x95, 0xd7, 0x6a, 0x3d,
  0xd2, 0xc5, 0xb8, 0x3d, 0x73, 0x7f, 0xb0, 0xbe, 0xb1, 0x15, 0x4a, 0x3e,
  0x16, 0x5c, 0x47, 0xbe, 0x53, 0x89, 0xd3, 0x3d, 0x50, 0x20, 0x96, 0x3d,
  0x74, 0xfe, 0x03, 0xbe, 0x77, 0x99, 0xe9, 0x3d, 0xdc, 0x82, 0x37, 0x3e,
  0x96, 0x62, 0x96, 0x3e, 0x0e, 0xbb, 0x22, 0x3e, 0x62, 0x56, 0x5e, 0x3d,
  0x2c, 0x0c, 0xb6, 0xbe, 0x3d, 0x0b, 0x81, 0xbd, 0x3c, 0xa2, 0xdf, 0x3d,
  0x80, 0xcb, 0x14, 0xbe, 0x1c, 0x9f, 0xeb, 0x3d, 0x75, 0xbf, 0x7c, 0x3d,
  0xe6, 0x92, 0xad, 0x3c, 0x6a, 0x82, 0x95, 0xbe, 0x66, 0x1a, 0xa6, 0xbd,
  0xcc, 0x33, 0xbc, 0xbe, 0x22, 0x7f, 0xfe, 0x3d, 0x07, 0xcc, 0x82, 0xbd,
  0x7a, 0x4b, 0xb2, 0xbd, 0x6d, 0x14, 0x0f, 0xbe, 0x42, 0xa0, 0x4a, 0xbe,
  0x96, 0x46, 0xa3, 0xbc, 0x3d, 0x9e, 0xeb, 0x3b, 0xaf, 0xb4, 0x17, 0x3d,
  0x2d, 0x71, 0x3b, 0xbe, 0x57, 0xe5, 0x52, 0xbe, 0xd0, 0xf8, 0x8a, 0x3d,
  0x18, 0x22, 0x80, 0xbd, 0x5f, 0x5a, 0xdb, 0xbd, 0xa9, 0x2b, 0x16, 0xbe,
  0xd4, 0xd4, 0x5c, 0x3d, 0xb1, 0xe1, 0xb7, 0xbd, 0x63, 0x68, 0x8c, 0x3e,
  0x37, 0x9c, 0x07, 0xbe, 0x4c, 0x43, 0xa9, 0x3d, 0x8c, 0xd4, 0xbb, 0x3e,
  0x89, 0xc4, 0x10, 0xbe, 0x87, 0xc7, 0xa2, 0x3e, 0xe7, 0xc5, 0x11, 0x3e,
  0xbb, 0x27, 0x54, 0x3e, 0x78, 0x9e, 0x8d, 0x3c, 0xfe, 0x29, 0x1f, 0x3c,
  0x5f, 0x69, 0xdf, 0x3d, 0x67, 0x09, 0xb2, 0x3c, 0x90, 0xb6, 0x64, 0xbe,
  0x8c, 0x7c, 0xb6, 0xbd, 0x77, 0x59, 0x81, 0xbb, 0x97, 0xfa, 0xd6, 0xbd,
  0xc5, 0x1f, 0xb2, 0x3e, 0x4e, 0xf3, 0x9c, 0xbc, 0xb8, 0x79, 0x8c, 0x3d,
  0x28, 0x44, 0x26, 0x3f, 0xef, 0x6e, 0x26, 0xbe, 0xbb, 0xef, 0x8a, 0x3c,
  0xaa, 0xe5, 0x81, 0x3e, 0x8b, 0x35, 0x3e, 0xbd, 0x2a, 0x44, 0xc8, 0xbd,
  0xa1, 0xf7, 0x81, 0xbe, 0xdb, 0xce, 0xe0, 0x3d, 0x6b, 0xb3, 0x4c, 0xbe,
  0x06, 0x66, 0xa2, 0xbd, 0xe8, 0xa8, 0xa7, 0xbd, 0x02, 0x84, 0x40, 0x3e,
  0x98, 0x77, 0x0a, 0x3d, 0xd1, 0x56, 0x44, 0x3e, 0x2a, 0xe3, 0xbe, 0xbd,
  0xe9, 0xf5, 0x93, 0xbd, 0x5c, 0xec, 0x76, 0x3e, 0x50, 0xf5, 0x7f, 0x3c,
  0xb3, 0x25, 0xa8, 0xbd, 0xc2, 0xca, 0x42, 0x3c, 0xd6, 0x7b, 0x59, 0x3e,
  0xc0, 0xdd, 0xe4, 0x3c, 0x5f, 0xd4, 0xae, 0x3d, 0xb3, 0xca, 0x06, 0x3d,
  0xf3, 0xc7, 0x3e, 0xbe, 0x22, 0x68, 0x1c, 0x3e, 0x1e, 0x0d, 0xb6, 0xbc,
  0x15, 0xe8, 0x0a, 0xbb, 0xe8, 0xc5, 0x9b, 0x3d, 0x67, 0xc9, 0x4d, 0x3e,
  0xf6, 0xf4, 0x1f, 0xbd, 0x86, 0x1a, 0xdf, 0xbd, 0x56, 0xaf, 0x8e, 0x3e,
  0x0d, 0xc9, 0x54, 0xbe, 0x5b, 0x70, 0x1a, 0x3e, 0xcf, 0x6e, 0xcf, 0xb9,
  0xc4, 0xe1, 0x25, 0xbe, 0xde, 0x55, 0x19, 0x3e, 0xc9, 0x05, 0x07, 0x3e,
  0x20, 0xcf, 0x4f, 0x3c, 0x0d, 0xcc, 0xbb, 0x3d, 0xbd, 0x34, 0x66, 0xbd,
  0x8f, 0x5f, 0x23, 0xbe, 0x8b, 0x73, 0x2c, 0x3d, 0x13, 0x73, 0x1d, 0xbc,
  0x2e, 0x9e, 0xf0, 0x3d, 0xb7, 0xfe, 0x0d, 0xbe, 0x4c, 0x41, 0x29, 0xbe,
  0x71, 0x2c, 0xb4, 0x3e, 0xd1, 0x47, 0x85, 0xbd, 0xcb, 0xdc, 0x37, 0x3e,
  0x32, 0x1b, 0x8e, 0xba, 0x80, 0x51, 0x38, 0xbd, 0xa9, 0x2e, 0x85, 0x3e,
  0xaa, 0x3a, 0x13, 0xbe, 0xe4, 0x31, 0x2b, 0x3d, 0x60, 0xb2, 0x97, 0xbd,
  0x4a, 0x26, 0x01, 0xbe, 0xb1, 0x95, 0xb8, 0x3d, 0xd5, 0x56, 0x92, 0x3d,
  0x20, 0x24, 0x98, 0xbe, 0x01, 0x88, 0x8f, 0x3d, 0x0e, 0xe2, 0xd1, 0xbd,
  0xbb, 0xd0, 0x79, 0xbe, 0x77, 0xe4, 0x04, 0x3e, 0x8f, 0x79, 0x2f, 0xbe,
  0x77, 0x97, 0x0a, 0xbf, 0x12, 0xad, 0xbf, 0xbd, 0x27, 0x76, 0x0f, 0x3e,
  0x65, 0x26, 0x54, 0x3e, 0x41, 0xd8, 0x8b, 0xbe, 0x6f, 0xf2, 0xcc, 0xbe,
  0x85, 0x63, 0x2f, 0xbe, 0x71, 0xae, 0x8b, 0xbe, 0x4a, 0xfe, 0xff, 0xff,
  0x10, 0x00, 0x00, 0x00, 0x05, 0x00, 0x00, 0x00, 0x14, 0x00, 0x00, 0x00,
  0x2c, 0x00, 0x00, 0x00, 0x02, 0x00, 0x00, 0x00, 0x10, 0x00, 0x00, 0x00,
  0x70, 0x00, 0x00, 0x00, 0x17, 0x00, 0x00, 0x00, 0x73, 0x65, 0x71, 0x75,
  0x65, 0x6e, 0x74, 0x69, 0x61, 0x6c, 0x2f, 0x64, 0x65, 0x6e, 0x73, 0x65,
  0x2f, 0x4d, 0x61, 0x74, 0x4d, 0x75, 0x6c, 0x00, 0x38, 0xfe, 0xff, 0xff,
  0x2e, 0xff, 0xff, 0xff, 0x04, 0x00, 0x00, 0x00, 0x08, 0x00, 0x00, 0x00,
  0xff, 0xff, 0xff, 0xff, 0x70, 0x00, 0x00, 0x00, 0x00, 0x00, 0x0e, 0x00,
  0x18, 0x00, 0x08, 0x00, 0x07, 0x00, 0x0c, 0x00, 0x10, 0x00, 0x14, 0x00,
  0x0e, 0x00, 0x00, 0x00, 0x00, 0x00, 0x00, 0x02, 0x10, 0x00, 0x00, 0x00,
  0x04, 0x00, 0x00, 0x00, 0x10, 0x00, 0x00, 0x00, 0x2c, 0x00, 0x00, 0x00,
  0x01, 0x00, 0x00, 0x00, 0x02, 0x00, 0x00, 0x00, 0x18, 0x00, 0x00, 0x00,
  0x73, 0x65, 0x71, 0x75, 0x65, 0x6e, 0x74, 0x69, 0x61, 0x6c, 0x2f, 0x66,
  0x6c, 0x61, 0x74, 0x74, 0x65, 0x6e, 0x2f, 0x43, 0x6f, 0x6e, 0x73, 0x74,
  0x00, 0x00, 0x00, 0x00, 0xa0, 0xfe, 0xff, 0xff, 0x96, 0xff, 0xff, 0xff,
  0x04, 0x00, 0x00, 0x00, 0x0c, 0x00, 0x00, 0x00, 0x9d, 0xe4, 0x8b, 0xbf,
  0x51, 0x1e, 0x7a, 0xc0, 0x65, 0xbe, 0x49, 0x40, 0x0a, 0xff, 0xff, 0xff,
  0x10, 0x00, 0x00, 0x00, 0x03, 0x00, 0x00, 0x00, 0x10, 0x00, 0x00, 0x00,
  0x3c, 0x00, 0x00, 0x00, 0x01, 0x00, 0x00, 0x00, 0x03, 0x00, 0x00, 0x00,
  0x29, 0x00, 0x00, 0x00, 0x73, 0x65, 0x71, 0x75, 0x65, 0x6e, 0x74, 0x69,
  0x61, 0x6c, 0x2f, 0x64, 0x65, 0x6e, 0x73, 0x65, 0x5f, 0x31, 0x2f, 0x42,
  0x69, 0x61, 0x73, 0x41, 0x64, 0x64, 0x2f, 0x52, 0x65, 0x61, 0x64, 0x56,
  0x61, 0x72, 0x69, 0x61, 0x62, 0x6c, 0x65, 0x4f, 0x70, 0x00, 0x00, 0x00,
  0x60, 0xff, 0xff, 0xff, 0x00, 0x00, 0x06, 0x00, 0x08, 0x00, 0x04, 0x00,
  0x06, 0x00, 0x00, 0x00, 0x04, 0x00, 0x00, 0x00, 0x40, 0x00, 0x00, 0x00,
  0x33, 0x5a, 0x60, 0xbe, 0x5c, 0xcc, 0xdc, 0xbf, 0x3d, 0xc0, 0x1a, 0xbf,
  0xd7, 0x3d, 0x8b, 0x3e, 0x15, 0x33, 0x2e, 0xc0, 0xa8, 0x3b, 0xca, 0xbf,
  0x17, 0xf5, 0xd1, 0x3d, 0xea, 0x5d, 0xc5, 0xbf, 0x24, 0xdd, 0x1c, 0xbe,
  0x83, 0x38, 0x5b, 0x40, 0xeb, 0x7f, 0xf3, 0x3e, 0x5f, 0x3a, 0x6a, 0xbf,
  0x1e, 0x99, 0xaf, 0xbf, 0x79, 0x16, 0x59, 0xbe, 0x7a, 0x5c, 0xe5, 0xbf,
  0x73, 0x9c, 0x60, 0x3e, 0xae, 0xff, 0xff, 0xff, 0x10, 0x00, 0x00, 0x00,
  0x02, 0x00, 0x00, 0x00, 0x10, 0x00, 0x00, 0x00, 0x3c, 0x00, 0x00, 0x00,
  0x01, 0x00, 0x00, 0x00, 0x10, 0x00, 0x00, 0x00, 0x27, 0x00, 0x00, 0x00,
  0x73, 0x65, 0x71, 0x75, 0x65, 0x6e, 0x74, 0x69, 0x61, 0x6c, 0x2f, 0x64,
  0x65, 0x6e, 0x73, 0x65, 0x2f, 0x42, 0x69, 0x61, 0x73, 0x41, 0x64, 0x64,
  0x2f, 0x52, 0x65, 0x61, 0x64, 0x56, 0x61, 0x72, 0x69, 0x61, 0x62, 0x6c,
  0x65, 0x4f, 0x70, 0x00, 0x04, 0x00, 0x06, 0x00, 0x04, 0x00, 0x00, 0x00,
  0x00, 0x00, 0x0e, 0x00, 0x14, 0x00, 0x04, 0x00, 0x00, 0x00, 0x08, 0x00,
  0x0c, 0x00, 0x10, 0x00, 0x0e, 0x00, 0x00, 0x00, 0x10, 0x00, 0x00, 0x00,
  0x01, 0x00, 0x00, 0x00, 0x1c, 0x00, 0x00, 0x00, 0x2c, 0x00, 0x00, 0x00,
  0x04, 0x00, 0x00, 0x00, 0x01, 0x00, 0x00, 0x00, 0x40, 0x00, 0x00, 0x00,
  0x03, 0x00, 0x00, 0x00, 0x01, 0x00, 0x00, 0x00, 0x0c, 0x00, 0x00, 0x00,
  0x63, 0x6f, 0x6e, 0x76, 0x32, 0x64, 0x5f, 0x69, 0x6e, 0x70, 0x75, 0x74,
  0x00, 0x00, 0x00, 0x00, 0xfc, 0xff, 0xff, 0xff, 0x04, 0x00, 0x04, 0x00,
  0x04, 0x00, 0x00, 0x00
};

unsigned int model_tflite_len = 12316;// Fill the int in `src/model.cc` here